[PAD]
[CLS]
[SEP]
[MASK]
[UNK]
!
"
#
$
%
&
'
)
*
+
,
-
.
/
0
1
2
3
4
5
6
7
8
9
:
;
<
=
>
?
[
]
^
_
`
a
b
c
d
e
f
g
h
i
j
k
l
m
n
o
p
q
r
s
t
u
v
w
x
y
z
{
|
}
~
£
¥
«
·
¹
à
á
â
ä
ç
è
é
ê
í
ñ
ó
õ
ù
ú
û
ü
##e
##a
##s
##r
##g
##n
##i
##z
##k
##t
##h
##l
##f
##y
##m
##u
##d
##o
##c
##p
##w
##v
##b
##q
##j
##5
##1
##4
##x
##6
##7
##0
##2
##3
##í
##8
##9
##é
##è
##ç
##à
##â
##¹
##ñ
##ú
##ü
##ê
##ä
##ó
##û
##ù
##õ
##á
th
##ou
you
##er
##in
##at
the
##on
##an
to
##ing
##ll
wh
##or
##en
##es
an
##ed
it
##ow
##ar
##is
##et
##ot
##it
##om
##as
in
##re
that
##ve
##ut
##ay
and
of
he
##ere
re
what
be
we
me
ha
do
##le
##id
##st
##gh
on
##ld
is
go
##ck
sh
##ke
##se
##al
##ght
for
##im
don
kn
st
li
this
##ver
know
your
##ch
not
##ce
was
##ad
have
my
##ight
no
##ir
##ust
##ould
##ith
##ome
##am
##ant
##ent
##ee
with
can
##ill
##oo
##ur
are
##all
but
##out
##ly
ne
they
so
##ion
ab
get
##ct
did
all
just
like
##ter
##hing
about
out
##od
there
##ink
want
##ri
as
##her
##nd
got
##ea
she
ll
ch
how
if
here
su
pr
##op
up
think
at
him
##ry
##ake
##one
any
##ic
##ell
##and
##ie
##ess
ve
##pp
##ook
##ra
##est
who
wor
one
de
##un
fr
some
##ack
her
see
why
well
now
al
##ind
##ore
right
##il
going
ever
say
##us
look
##art
would
sa
##ive
##ally
man
or
##ge
tell
##ain
lo
us
##ard
pl
##ig
##ist
##uck
tim
where
good
##ul
se
oh
yes
##alk
could
when
##os
##if
gu
##ame
his
ex
##ol
##ong
ar
##ate
com
##ven
##ast
from
som
thing
were
##end
##ers
been
##ab
somet
will
##ound
time
yea
yeah
##au
##way
come
back
mean
##ak
##ob
##ear
##na
didn
sp
con
##ine
let
##our
them
##um
talk
br
had
##itt
every
tw
##ick
off
##ice
##ation
too
##thing
##own
then
than
##lf
may
car
##ous
something
am
tr
never
##ap
take
##other
ag
cl
##ose
call
le
way
fuck
##ough
does
mr
en
work
happ
##ty
need
##ort
ok
##ody
really
make
##fe
##be
over
pe
down
should
af
##ase
##ittle
qu
##ery
little
more
dr
##em
##oy
un
mo
gon
##ought
by
bl
bet
gonna
##ace
our
sure
okay
said
##ople
guy
mu
people
##ause
has
kill
##ber
mar
int
##el
bu
##ide
co
##ag
##body
two
sc
maybe
##th
only
won
##self
##iss
very
happen
##reat
bec
hu
und
##ect
hell
much
##oney
##eel
day
under
##ree
##ff
even
god
##ew
wr
year
anything
##ther
##lie
sor
##ving
doing
##ure
##ish
ask
thought
sorry
love
give
other
##ity
##ies
##ite
feel
hel
##ble
gr
##ting
fir
night
ro
##riend
because
new
jo
wa
##act
again
thank
help
try
nothing
##eep
##ning
##ip
into
long
##fore
im
##ment
find
##wn
before
life
##ue
sir
##ather
belie
##ach
after
must
gir
ple
##ich
put
still
money
told
rem
##pl
##ang
em
these
wait
po
##der
last
first
##ady
lea
##ade
around
##ass
hey
##ta
things
##ire
##ance
thr
kind
friend
el
kid
old
believe
##ud
##per
those
cr
girl
prob
keep
cou
##ves
##iz
##age
better
##ways
ad
##ood
big
sw
name
part
##pt
sm
list
##ool
always
isn
years
##get
boy
##day
ma
ho
##ence
shit
##atch
##oss
min
real
away
great
home
please
hi
lot
uh
per
underst
##ved
place
doesn
##ile
##ft
##urn
mon
ac
cour
their
stop
fl
miss
bad
##ix
ass
##ried
fa
##ise
##int
act
everything
understand
listen
##ci
##ouse
supp
hand
play
remem
care
##og
start
##ord
##ild
remember
ph
##ath
stay
three
run
sec
##ory
##ank
##ep
bus
hear
dis
##ond
##ull
wouldn
id
happened
##qu
wrong
huh
stu
##able
guess
might
dead
##iff
##tain
tra
cra
talking
##een
minut
made
##atter
mother
show
else
##red
##man
wom
tom
house
father
##ious
##ater
leave
##ia
mind
##ny
##ful
mor
ser
course
head
##amn
wanted
##aking
##ey
##sh
la
##oth
own
##pr
ain
str
done
nice
dad
someone
##ek
inter
res
##ock
##ans
getting
through
came
gotta
job
enough
yourself
sch
another
wasn
five
mom
##port
pro
par
ins
pret
ton
##pect
bo
##ict
being
##ions
left
world
##ac
saw
fine
##akes
sl
ya
##are
##orr
##lem
week
room
fucking
char
##itch
rec
hard
##ign
app
knew
cont
##nt
##ange
##dy
##erson
##iness
went
di
meet
war
heard
matter
##orm
looking
##ary
trying
##hn
##ated
comm
same
son
##ub
##ner
which
che
fun
##ple
##ro
haven
diff
##ever
hur
##ife
seen
tonight
coming
turn
##ctor
##enty
four
john
##ph
guys
whole
pretty
bre
six
bab
gl
person
##osed
pol
att
business
##pen
read
seem
fo
watch
##ons
live
fin
walk
##mm
fam
##ars
te
quest
plan
acc
cle
##gg
##ince
word
many
used
##ope
##orrow
har
best
##ian
called
##ily
pay
ter
##leep
hour
found
thanks
tri
##ndred
ah
hundred
##ible
deal
couldn
problem
morning
##ave
comp
pre
##ister
inv
most
des
killed
##xt
##ident
hello
##my
idea
says
men
chr
##wh
wife
##av
##ually
cap
ten
##ett
woman
use
##zy
jack
stuff
##ream
next
sit
myself
dri
##les
saying
sur
differ
far
school
##ents
once
##orn
pa
without
tomorrow
sen
bar
end
##ash
##ors
##ably
cut
while
##ical
bring
##ult
hold
##anc
sho
few
gi
wonder
##gether
jes
##aught
today
sound
baby
pick
##ail
brother
yet
pres
ed
together
met
##ason
ago
child
##uth
drink
point
damn
since
somebody
days
open
##aut
##anna
sleep
rest
took
fif
##ready
such
##ead
##ling
probably
thir
doll
eas
doctor
ey
gone
already
exc
aren
christ
pri
count
crazy
alone
case
eat
stand
thous
late
half
dec
exact
anyone
thousand
hot
nobody
jesus
book
##eak
ap
##raid
die
wants
gun
twenty
break
beaut
month
fig
##sw
check
unt
##eet
friends
##son
##ng
##ouble
anyway
dar
forget
thinking
afraid
hurt
##ize
high
prom
##ition
second
minute
law
ev
##where
##air
supposed
interest
mrs
##ower
hope
##ib
bill
cop
##pe
shot
looks
rel
mill
sk
##ost
##oke
wanna
young
hit
family
##right
exactly
cause
##ying
soon
until
face
knows
makes
spe
eight
set
##amp
lost
##cept
##unch
hon
story
compl
##ness
minutes
##less
working
##fect
bed
gra
town
gen
num
ob
aw
poss
##ger
fight
##use
move
police
##gin
married
true
question
##ott
##by
##ings
kids
##iful
##ump
answ
everybody
##vel
asked
##ual
frank
bull
##rew
##ared
sim
gave
##ating
##ug
worry
##az
##ither
je
having
godd
different
##ork
sometim
conf
pass
ready
ear
beautiful
wish
##ane
actually
##ations
happy
heart
##ah
bit
luck
shut
mur
air
sign
##ert
least
times
phone
anybody
col
alright
##iv
##ied
beh
##no
trust
inf
##ret
##enc
##llow
door
gets
death
trouble
##ress
mil
##ont
light
dream
expl
##ier
ind
##ial
both
sy
hum
cons
blood
bra
hate
##cial
del
reason
hun
mad
##ned
shoot
each
import
##land
quite
easy
cor
pull
ste
##ired
##uss
ge
star
taking
##ates
inst
serious
fuckin
##ely
##cc
##ins
##ames
yours
close
chance
##unk
##more
fact
send
speak
##vie
##ird
##ne
whatever
black
din
making
det
inc
eng
##reet
change
honey
sort
expect
fire
##ens
dep
captain
##vor
##ention
answer
##iver
telling
pict
##io
side
truth
couple
disc
hours
dollars
water
important
ben
##ren
##outh
goes
news
lear
mine
##ouch
follow
lie
anymore
##app
##ertain
buy
sometimes
##ding
##ison
##its
body
power
certain
free
sex
everyone
alm
sick
comes
against
##ok
##ime
suppose
funny
number
##up
##uct
ret
adm
goddamn
tried
mess
sal
##olog
##ley
forg
stra
pap
sn
##ward
coll
rob
##uc
##ton
rid
later
bud
hus
bur
ele
fell
sent
##ped
##eral
dog
full
eyes
cal
##sy
pat
##ax
##ole
white
street
def
game
##orge
reg
party
##ject
though
##inc
##ks
##artment
jim
grand
ship
inside
##ient
##eric
wind
##ipp
##led
##band
##als
art
waiting
country
pie
touch
##pid
fifty
murder
es
hands
pet
secret
months
husband
shouldn
almost
americ
excuse
arr
sister
lik
sweet
##hin
drop
means
terri
cur
##att
stupid
daddy
pain
win
##iet
sus
##ude
died
##aps
its
women
million
sing
##00
fall
either
thirty
along
leg
dra
conc
office
##ape
tea
##ush
red
fil
##teen
finish
dinner
sam
##ler
george
##so
##lin
##anger
wear
record
city
##ised
##ters
##ms
##ital
living
##press
beat
##aken
maj
drive
line
sense
behind
mag
sub
betw
running
##side
##ator
bob
between
hang
mem
unc
##sel
##ures
feeling
##ield
##oice
build
lou
##ets
started
sat
##ides
seems
president
alive
clean
##aughter
nat
ra
##ience
lady
chang
prop
boys
state
##umb
mus
rich
seven
##ured
scared
##shit
figure
ann
bel
order
##ular
##med
mid
himself
able
gre
##vice
stud
worth
##ote
dear
class
girls
clear
offic
perfect
ext
wer
##dd
prof
children
dist
also
hor
ref
hair
safe
##ike
ball
bitch
straight
weren
##ract
write
exper
test
vis
glad
##ited
buck
##cks
trans
med
##ows
lead
imp
sounds
small
bank
##ten
##ps
report
complet
##ider
lau
##any
poor
bullshit
front
somewhere
brought
train
dest
dick
land
cold
##haps
##ric
perhaps
ou
rad
##ards
er
##ster
sell
york
happens
contr
surpr
outside
moment
weeks
add
dire
ke
##arth
less
mist
fool
ow
##aw
ahead
special
king
psy
ru
##ense
abs
goin
los
##erv
psych
daughter
mary
##ys
##ama
lose
ent
asking
harry
catch
fel
##ats
##aster
##osp
movie
##ics
cool
near
cent
shall
##itting
taken
bother
jer
favor
inform
squ
##hh
##ony
till
promise
dark
key
lives
nick
##ram
##ubl
fast
hosp
nine
##olut
prot
coff
pop
ty
mark
mer
##ility
imag
throw
possible
explain
##dle
##omb
accident
teach
fre
oper
vi
##vin
wal
##co
cond
human
danger
food
##uce
##lly
hotel
past
wall
##ines
##ief
fair
company
##iting
bes
tot
picture
leaving
resp
ca
fly
mart
##ior
##ount
##ically
lock
paul
begin
priv
dress
##ship
##gry
hospital
save
except
learn
control
tired
##ced
rep
max
##room
##ern
top
super
thinks
looked
coun
miles
piece
mich
mouth
needs
rather
##oc
##ction
##airs
##ale
kiss
##ze
offer
joe
playing
disapp
lucky
calling
laugh
dav
worked
quick
questions
pur
words
##ency
dou
##cent
publ
known
works
buddy
ought
cover
pleas
dan
pen
##gan
personal
wonderful
gent
##erg
##ative
mister
##vis
##oun
cost
coffee
fix
##und
##ces
doin
step
none
##fort
flo
##zz
music
pos
ride
vict
blow
park
general
jud
mach
##unt
earth
bag
pal
##uts
sun
carry
rose
ray
##ark
##stem
jeff
meeting
honest
##bt
parents
charlie
##igh
##he
system
felt
major
protect
treat
##oul
stick
drug
kidding
attack
apartment
cas
tre
##amed
press
##ession
vir
##ove
##br
meant
marry
consider
destr
cann
##ists
##ined
bas
mis
##ized
court
##idence
##ones
##ode
smart
invest
interested
burn
seeing
tele
honor
takes
val
spend
clock
paper
fe
others
david
dem
##selves
turned
cry
eh
##ef
##vers
##ants
##terday
yesterday
date
##ald
sev
##ately
conn
##lish
fucked
blue
invol
giving
besides
boss
ran
sid
##ific
respect
##ael
ord
army
command
grow
strange
##uation
##joy
talked
cloth
creat
lord
##die
##bar
become
swear
##bor
road
smell
information
ill
##ma
enter
simple
##fer
worse
loved
##ball
##ided
ups
##ift
kick
reach
stri
chick
fault
cops
absolut
lar
##ming
##ene
paid
certainly
bird
mention
um
##iam
##lex
knock
worried
walter
outta
aff
short
##irth
happening
terrible
##iot
sold
bor
jew
##go
prog
strong
michael
bast
feet
ir
pack
##ney
changed
bri
hop
##ues
sol
drunk
pea
##ls
##eth
gold
suit
prison
slow
lawy
lunch
mama
##nes
conv
unless
uncle
cannot
clothes
gar
pract
caught
jun
##ik
enjoy
rock
assh
plane
given
american
deep
##oose
dam
tough
hist
##ged
ones
quit
hasn
handle
fifteen
##ities
store
##vern
cab
chief
##ances
eye
middle
bust
nor
##vious
##inger
##ully
boat
early
##aa
adv
##ette
return
public
mot
nothin
bucks
mistake
private
norm
tick
##ories
evening
figured
##gr
foot
building
destroy
lay
##uff
##esh
sher
forty
twel
truck
busy
watching
comput
twelve
breat
birth
hid
jump
tur
##ages
den
lying
neg
bath
anim
peter
kept
absolutely
sand
wed
##bers
clos
trip
brain
jimmy
base
choice
killing
cross
appre
wit
##cri
arm
broke
##ism
wel
weird
moving
kinda
fut
##ently
##ury
letter
acr
careful
cash
ring
##lo
##me
dev
respons
ell
fed
##yn
##bed
anywhere
completely
radio
upset
##old
tor
##ety
form
difference
arrest
imagine
##ives
##itive
govern
quiet
##ission
situation
detect
english
liked
involved
cat
##over
##irt
loc
agent
longer
commun
##oken
19
da
low
##cess
alex
born
card
tv
##bo
##oup
##ments
james
mike
##ational
club
realize
problems
third
piss
wood
##gn
ice
ris
##ench
##urity
##ili
space
finally
team
dangerous
doubt
floor
appreci
bott
bomb
fear
box
history
sil
van
##come
afterno
service
instead
esc
main
##tin
sudd
##used
future
sudden
ble
bout
island
##ume
hurry
books
likes
nerv
##gar
##oud
##erve
##illy
calls
interesting
viol
afternoon
nervous
hall
##oof
##ilt
relax
cir
camp
sad
##oint
doc
fort
screw
proper
cig
dig
occ
wake
##ov
green
entire
jail
nin
##oid
self
board
obvious
sitting
##ium
##yle
neigh
killer
glass
fat
sake
##ring
##ping
##uring
carl
security
discuss
finished
officer
visit
dance
rom
station
##urs
##urch
message
circ
dun
gee
wow
##ray
church
johnny
lad
ted
possib
machine
ver
##uke
allow
##ulous
cla
##orth
stopped
peace
ce
jake
table
steal
opp
needed
roll
eddie
natur
belong
hmm
##idge
fred
darling
across
ger
tem
##ina
##ots
prod
post
account
decided
pictures
cam
fish
lim
##te
##iter
##rey
##lfriend
impress
staying
window
age
bunch
mod
wrote
girlfriend
accept
missed
picked
colle
direct
##stairs
totally
disappear
dude
hy
##ounds
owe
bought
somethin
emp
evil
horse
connect
asshole
welcome
cook
fol
hom
san
west
##ugg
shop
college
tape
##cut
##imin
##ills
spl
lots
contin
lawyer
##fully
##ering
##ened
goodby
mac
forgive
tast
##mit
requ
bastard
investig
witness
eve
##atic
gotten
suck
##ogra
present
apolog
hungry
cigar
goodbye
cong
cast
south
##nie
join
contact
appreciate
est
fill
##aven
##mas
##ino
heal
amaz
missing
fur
##etch
sugg
hardly
##avy
computer
sett
soul
voice
##etic
##ices
holy
##view
av
equ
hide
wild
##night
lived
partic
phil
prep
deliver
address
cow
gard
##ann
##key
##onel
french
william
calm
dumb
named
##uel
##oon
##bi
force
##pped
enem
prove
wearing
cell
threat
weap
usually
moved
corre
kar
ange
christmas
dying
field
##how
price
awful
department
louis
program
##to
##pin
##iment
driving
billy
papers
suspect
pard
##ru
saved
quar
##cially
appear
color
forgot
suggest
russ
##ky
##form
##ana
##une
hero
charge
elect
##king
##aine
marri
fail
surprise
hook
##eng
heaven
princ
hadn
phot
single
master
roy
##ination
nose
sail
ground
smoke
standing
gas
crime
##ipped
imposs
government
bow
mas
##ham
##ica
whose
putting
phys
lab
##ai
ant
suff
##ules
arg
listening
##vision
band
mir
##friend
##ester
##uten
idiot
track
appro
sens
defin
draw
impossible
yell
##ether
const
mov
attention
lieuten
song
##work
##bit
summ
##ico
load
loves
farm
##uthor
movies
##ians
##ature
percent
##ogn
##aces
diffic
gives
colonel
cre
pot
neck
joke
boyfriend
##cious
reading
relation
fit
hol
push
share
bro
recogn
obs
##attle
birthday
correct
lieutenant
cust
round
##iday
stuck
wash
neither
spir
divor
dreams
pleasure
detective
rick
sea
##arch
##ute
beer
pray
using
level
ways
walked
film
extra
surprised
dat
##ruct
clar
starting
paris
terr
surv
dollar
spec
experience
type
drugs
wedding
folks
pardon
aud
mc
blame
block
neighbor
##bb
comfort
twice
promised
earl
records
beginning
judge
sheriff
hen
jul
whether
beach
##ille
fright
##ify
guest
fired
brothers
ridic
america
normal
tal
##vy
notice
##ified
closed
partner
walking
admit
jerry
gh
mitch
rain
##hood
##icide
##aged
writing
group
admir
code
during
##uit
##bur
thom
##owers
asleep
##ished
mission
##lemen
charles
seemed
trick
wondering
depend
names
vac
##ston
shar
memory
relationship
civ
nuts
pin
##uty
talkin
cred
crash
smok
guns
evidence
##ograph
gift
tight
tells
plenty
guard
exam
##aked
broken
moon
tech
fighting
orders
marriage
difficult
tar
tap
##ted
##cy
##boy
exp
bye
##ager
crap
holding
##pecially
especially
ridiculous
silly
##por
wheel
franc
polit
cute
seconds
martin
amazing
aut
cup
##zen
##fuck
##otion
##iew
spent
planet
fellow
dump
lam
rent
rub
washing
##iced
##astic
##place
camer
particular
loose
port
sle
##bs
exist
betty
acting
ide
##pens
position
feed
fbi
lee
view
##ron
##la
tow
inno
beg
exce
##aud
scream
travel
skin
jean
definite
bat
pan
pil
river
tear
##nal
##ius
##den
forever
intr
##itor
buzz
yah
file
ju
mal
tax
##gu
##ners
##lor
##par
##ries
plans
intell
faith
weekend
decis
patient
egg
north
pig
##fast
ther
##ese
bear
mex
within
##oop
butt
##esty
##ended
lovely
host
sleeping
pulled
collect
victim
double
sar
##enny
mel
stories
note
proud
search
grant
remind
keeps
hole
breakfast
condition
gentlemen
fant
finger
gri
nur
ori
##rop
##que
often
worst
arri
meaning
brown
##els
crimin
crack
contract
sixty
sym
detail
jam
##ka
bridge
clim
##ploy
grace
animal
jan
##iny
queen
swim
support
bobby
odd
rout
heavy
organ
seriously
nature
mmm
##ez
angry
andy
##iforn
played
tommy
desert
##ancy
##ology
californ
bathroom
lang
opin
ital
##ung
scene
feelings
embar
attract
##while
dor
danc
rules
##men
rece
##ires
area
gettin
champ
univer
##bert
cock
feels
##ips
object
terrif
seventy
nurse
crew
##row
##here
repr
iss
shock
##icated
ourselves
advice
##ption
##ints
harm
health
summer
california
000
bal
ef
page
##min
##ishing
##read
##ada
succ
places
##ender
spot
agree
event
##eg
##pap
stole
##eech
plus
learned
concer
profession
complete
television
effect
author
bod
cree
games
##ges
##kes
##light
##of
##irty
chea
blind
built
gentle
henry
civil
washington
ber
du
dirty
ly
mass
##rass
##isf
bell
agre
leon
perform
insane
murdered
jeffrey
##heart
split
##ength
techn
rand
yo
##iant
##wood
##ution
onto
arch
bruce
keeping
hiding
embarrass
coo
match
##cer
##ises
##rick
herself
assist
charact
gener
##ences
medical
apologize
innocent
jour
nig
##gas
##itude
lic
##ument
##itten
pretend
committ
majesty
keys
definitely
gim
mix
tit
knowing
willing
speech
convers
##oyd
immed
showed
project
teeth
profess
favorite
custom
ghost
credit
lind
rough
##ging
##line
##ye
##ero
##enn
cha
##ander
lately
simp
risk
empty
success
immedi
las
pu
rome
tree
##ss
##ral
##enth
##urance
##olf
amb
marsh
scar
holly
flight
interview
trial
apart
shooting
incred
study
marty
settle
enemy
dave
luc
##za
##ki
##ford
##field
##ena
stock
##amin
soft
brad
craw
##acy
warm
prec
drinking
copy
speed
robert
subject
due
rap
##eed
##let
##yond
##wise
##ano
beyond
weather
stan
states
necess
upstairs
##elly
##ettes
senator
shoes
richard
training
losing
##ountain
ticket
devil
pool
client
scr
crow
greatest
ident
harold
paying
eating
following
curious
magic
horri
obviously
path
sant
ug
vide
wine
##aff
weak
waste
somehow
letters
emerg
pock
smith
decide
grab
newspap
fella
dropped
hanging
chicken
responsible
taste
spirit
admiral
introd
origin
##iat
brand
action
corner
satisf
suddenly
claim
opinion
concerned
taught
##rat
thou
##omm
stone
##icle
whoa
motherfuck
heads
sweetheart
legs
locked
virgin
##iliar
possibly
cous
hat
airport
ban
ol
rat
ram
tie
ur
##ration
##itz
sund
##oph
##ortun
swe
famous
familiar
prefer
numbers
purp
victor
opportun
professor
gang
gord
##gue
##town
##val
##oned
lied
lloyd
chair
themselves
##achel
turns
##otten
incl
german
data
thomas
30
fle
ign
##iest
##cus
ang
##arm
##alous
ash
sugar
proof
seat
scott
mommy
common
magaz
excell
intellig
cheap
cy
dry
ros
sight
size
##ker
##lu
##ered
##eter
##ades
##ula
##ulations
comin
cars
tru
career
runs
desk
##wards
susp
satur
raise
danie
commander
gimme
simply
boo
lone
##aur
##ased
##ste
lift
spoke
bright
natural
further
dom
ven
wound
##ening
forward
noticed
##antic
suicide
comb
scare
##ization
bigger
switch
laur
personally
mostly
checked
sooner
complain
##velop
request
saturday
gal
vol
##ville
held
haw
fore
##ils
##usion
monster
insurance
jealous
afford
junior
breath
repres
character
duty
fem
jason
kay
mick
mcc
nail
pants
sour
##head
##da
dont
stat
vegas
arms
science
nightm
helped
employ
prov
##iction
attorn
excited
##ibility
drag
director
freak
large
decision
bon
borrow
ry
rum
##mission
heat
##icious
deg
fresh
lookin
otherwise
laid
descri
passed
annie
ideas
horrible
sunday
attorney
bond
rab
wil
ham
##imate
claud
bug
starts
appar
design
hunt
norman
dunno
conversation
ugly
##stein
cit
hors
hired
kitch
mountain
rip
tour
stars
sever
sport
scient
sword
shows
doctors
lights
eleven
regular
distur
escape
property
ladies
broad
emergency
lonely
kitchen
10
eth
gall
jac
##mer
##oming
##asons
rele
weight
adam
speaking
discover
sales
quickly
busted
recognize
langu
aust
aunt
eur
pounds
row
wise
##istic
helping
accord
milit
madame
england
arrange
concern
perfectly
vacation
cousin
gam
jos
lake
mood
sin
til
##ued
##eds
whoever
develop
friday
plant
expens
brit
##ago
johnson
access
deserve
driver
beauty
goddam
sneak
dogs
leads
rule
bottle
talent
francis
mexico
bodies
license
gordon
bay
fan
ken
lond
##house
##well
##orter
rev
##ids
shr
liar
upon
##ilty
sees
guilty
joey
mentioned
##ground
blew
congrat
immediately
lines
mm
non
nah
##ts
whis
##ites
stom
storm
##lyn
justice
##ication
trade
scot
scri
remain
mail
matters
watched
planning
##uction
snow
crying
quarter
comfortable
london
corn
kr
luke
nar
ye
##time
##ores
##ored
##ality
soci
##using
exe
everywhere
energ
commission
eighteen
expected
hoping
local
terrific
11
national
##af
##gest
##ien
##ya
repe
##sey
##ches
nope
##elle
##earch
became
pregn
damned
eighty
market
total
pissed
criminal
purpose
truly
citiz
dise
gay
oil
pun
patter
##inct
##inary
##ato
##asy
##rage
nowhere
cares
grad
imm
strength
answers
secretary
ruin
disappoint
positive
carrying
practice
bottom
garden
approach
gentleman
pocket
18
awhile
bite
corr
cream
east
faster
kir
itself
react
##akin
drove
buff
nights
believed
poison
assign
stayed
##othy
milk
loud
cele
opportunity
europe
bum
cards
mat
mob
nic
##nin
##nel
threw
tooth
whom
stew
social
manager
usual
hearing
##gging
pair
bringing
sky
grave
engine
expecting
extre
square
teacher
pressure
camera
celebr
ms
mut
vill
##iers
##ising
sue
##icate
##uses
plain
express
##oles
united
writer
written
leaves
elaine
surr
sometime
benj
followed
susan
balls
center
danny
execut
ears
mall
net
tall
zero
##ga
##bing
##bly
theory
##ida
##tern
chop
##essed
whenever
spare
brill
unh
thro
research
bedroom
indian
sexual
pete
##board
allowed
weapons
script
battle
fund
tun
##ees
##ita
##asc
##asing
reasons
meat
above
chic
depress
separ
emotion
##perate
serge
jacket
bloody
dressed
teleph
larry
birds
damage
federal
naturally
smoking
energy
wire
##gen
##ived
##ients
##asion
ate
##icy
spock
enc
##anged
shower
serve
appoint
tex
##gged
opened
files
animals
closer
frightened
dorothy
incredible
20
ment
sna
##iner
heh
reck
##cha
log
quot
cole
##ache
older
biggest
hild
assume
easier
aware
operation
burned
sidney
weapon
sergeant
cart
cos
cub
jose
jane
map
wet
##tle
##back
spring
surely
flat
serv
inspect
##roll
refer
flying
county
destroyed
continue
neighborhood
represent
according
pattern
benjamin
ba
nut
tip
witch
##kins
##tor
##con
##case
##bon
thy
##erm
shame
butter
chap
however
##itty
carp
tryin
player
restaur
bullet
jerk
silver
fortune
princess
physical
divorce
mitchell
necessary
mickey
apparently
aye
bare
pure
punch
##sie
thurs
##osition
blank
thoughts
awake
indeed
brains
powerful
legal
turning
video
includ
ryan
language
stomach
bern
kane
naw
ot
pills
##iod
##cle
anal
##itions
shirt
##unce
##ending
##ement
ours
plays
sonny
defense
pieces
psychiat
century
issue
linda
hollywood
magazine
thursday
hill
jab
lap
oce
rod
ta
vall
##rant
##gy
##gers
##imp
staff
chem
alb
goodnight
among
blond
period
flowers
disg
trap
babe
behav
##ipper
boring
responsibility
arrested
investigation
cigarettes
russian
target
congratulations
throat
led
##ev
dozen
##cker
knife
stink
##ural
chain
print
letting
leo
activ
recall
streets
falling
magn
##fortun
professional
crowd
british
disease
hildy
bones
jap
junk
jury
lis
nap
pow
pump
tay
##uh
alan
saving
loy
unfortun
buying
##izing
funeral
breaking
simone
##under
prepared
mirac
tapes
eggs
excellent
chicago
dish
hm
hated
mater
pers
##ha
##uz
##pir
##stand
shift
##aker
##empt
unus
waited
understood
flor
strang
final
picking
signal
buried
virus
enterpr
strike
woods
terror
earlier
daniel
fi
pink
pear
vul
vamp
yep
##iation
##itation
shield
someplace
tellin
guar
lemm
unl
margo
##ffic
joint
process
tony
##aced
##etti
laws
signed
changes
nearly
laughing
illeg
negot
baseball
disappeared
italian
taylor
fab
mort
naked
pee
rh
##ex
##zo
##ture
##yl
##mon
##bage
##eding
##ilities
manage
trad
beth
swell
maid
charming
recomm
steve
forgotten
##ipping
freed
connection
society
loyal
unusual
guarant
15
jess
var
##gie
##ket
##oci
theo
inj
doors
shape
knight
lies
chest
choose
saf
##ateful
unf
moves
huge
finds
accom
ended
brings
confir
sending
riding
concent
selling
practically
cabin
williams
mask
depends
pilot
pregnant
joseph
lemme
cath
dust
fal
rate
roof
rachel
sally
wade
##father
youre
##ona
toward
anna
shark
lif
cancer
prim
##ulation
spell
trunk
downstairs
unif
coat
emper
associ
disp
clever
surf
baron
opening
robin
elev
sisters
ordered
##olution
garage
hyp
cowboy
sailor
slept
motherfucker
military
brilliant
cult
pill
pian
##ror
##rate
##ule
##oil
whad
whore
##reen
stol
##ications
loan
seal
talks
##ipe
smile
holl
attitude
instruct
##ledge
typ
##inese
fixed
sevent
brief
negative
ellie
clarence
dancing
several
behavior
enterprise
uniform
emperor
fing
rare
rush
##res
##ym
##ining
rever
##lect
kidna
trail
dealing
invite
pulling
##rica
steph
equip
angel
royal
japan
dent
dign
lat
math
ox
##eal
##uv
##ders
##oved
thor
thief
##ini
##ators
stab
noise
##pping
grown
firm
impr
parts
reality
monday
headed
sched
relig
complicated
artist
clearly
transfer
opera
hmmm
yellow
screaming
assistant
restaurant
ocean
12
fake
nons
tues
yard
##down
##off
theater
chat
chinese
rights
##ulate
spread
##umst
amy
downtown
carefully
rooms
commit
ends
decent
corpor
##ension
touched
member
expert
soldier
details
newspaper
telephone
tuesday
hates
kelly
pier
ron
sed
tong
tail
wend
##nn
##ox
##bling
##rel
##ceed
cance
cho
deb
france
clay
lect
partners
fac
##athan
showing
heading
jobs
sixteen
terry
jackie
##ashed
thousands
confused
midnight
cigarette
survive
audience
fantastic
arrived
journal
committee
horses
jacqu
equipment
nonsense
cents
dum
vice
wolf
##ele
##lt
##ux
##esar
likely
thinkin
sayin
##asty
amount
coast
actor
result
slight
diam
compet
wondered
millions
burning
covered
created
entertain
progress
##aaaa
romantic
avoid
princip
sarah
material
seventeen
fried
gain
jon
naz
ren
rail
sie
tab
tank
##ses
##for
##otic
whatta
shhh
style
liqu
wasting
##eez
##urt
##ila
clark
uns
##agne
score
finding
acqu
insist
planned
terms
##ashion
drinks
##swald
##ological
defend
regret
banks
lesson
creature
agreed
santa
original
jabez
diamond
dirt
fasc
gate
les
mile
oswald
pir
wes
##cl
reed
lips
##vert
##cher
##itted
##bel
grade
monsie
understanding
fourteen
##phy
invited
desire
incident
##ologist
official
experiment
caesar
kicked
occur
circumst
karl
anti
divorced
therap
kenned
repeat
extrem
freedom
stolen
monsieur
dare
fancy
hire
nerve
por
##agh
##iber
beau
liz
armed
spoken
grateful
roger
impl
poet
friendly
permission
##iac
intern
##gger
priest
bills
frankly
passing
##uced
curr
falls
solid
hidden
occasion
ninet
product
female
nightmare
kennedy
dim
ep
fashion
gig
guts
lous
pant
woke
##nis
##lies
##can
##ware
##vent
##anz
##eday
##reau
web
##ential
chances
deck
alarm
sean
someday
##abitch
##ouses
betray
##eless
underw
mont
insult
policy
famil
meth
passion
influ
humor
ruined
offered
pleased
growing
smells
belongs
photograph
create
route
title
scratch
intelligence
foreign
texas
bang
bax
cher
cyn
fer
fought
lor
mack
range
##ige
##fle
##mont
##oll
##oms
##asure
##rie
prince
mayor
carter
bureau
emb
assum
barn
edge
confidence
learning
squad
##ocol
oughta
honestly
attacked
value
affair
garbage
model
univers
universe
mixed
fingers
baxter
25
bound
hoo
joy
jones
nun
opt
puss
wy
##gl
##erves
reward
##stone
gosh
dece
##iles
##olic
agency
coke
##agon
male
realized
flesh
term
prior
younger
##nold
brave
steven
staring
patrick
loser
psycho
central
counsel
knocked
glasses
temper
congress
avail
##rupt
electric
champagne
performance
romeo
francisco
citizen
valley
negoti
safety
piano
lousy
families
100
hay
mul
porn
##mond
##oot
##cil
theat
##reck
##verage
soph
china
fro
twist
fucker
##road
attempt
jesse
frankie
hung
instit
##ucle
wallet
demand
tickets
ninety
castle
guests
victims
chaunce
pupp
introduce
expensive
appointment
reckon
illegal
extremely
chauncey
dies
miam
rack
rig
wid
##eer
##ault
##sa
##ris
##ially
##ios
##kin
##oe
##wich
##utation
doyle
forced
knowledge
chall
##osc
##eline
##ague
stretch
resc
sonof
hunting
secrets
singing
statement
distance
nicky
trees
bored
advant
claire
impressed
gardiner
sweat
emotional
tongue
available
miami
50
duck
fishing
gab
grew
hob
nurs
nasty
pad
peel
wra
##ij
##bles
##ara
hal
shad
##seum
stood
stamp
aband
##iling
##ushing
hud
badly
trace
resist
reserv
cheese
desp
cutting
shoe
exciting
checking
steady
facts
murderer
winter
counter
casino
miser
motel
breathe
##load
screwed
##ovich
tower
panic
attractive
unhapp
ast
bart
bible
boun
fra
fag
gear
kath
matt
ooo
pour
piz
##iving
##ca
toss
##enna
reven
sha
stage
liber
##rib
##aint
wherever
section
unit
moz
kills
gray
flash
phill
craig
series
appl
commer
invent
signs
##ival
regard
paint
painting
medic
destiny
border
escap
odds
discovered
disgust
miracle
bail
cake
dil
mum
na
race
tied
ward
##mother
##oard
##cul
##vard
thee
toby
whack
##rees
dope
##che
##ado
novel
##enture
aboard
wanting
##ril
##rict
shel
chew
chann
veh
lob
season
comr
spook
spoil
cloud
drown
##agn
scra
scary
##thy
##atherine
crit
genius
confident
##ivid
benef
windows
student
popular
reputation
penny
demon
breathing
deny
example
climb
authority
satisfied
including
circumstances
cad
kim
mere
nucle
tits
umm
vinc
vada
toil
##esa
anx
anne
##sters
##ante
shelly
cham
anyhow
fruit
##uman
museum
eliz
kidd
swing
parties
fav
boom
recently
recover
fourth
babies
preach
capable
edward
educ
##ception
explan
engaged
bothering
reporter
spending
jews
lawyers
community
possibility
filled
russia
loaded
holiday
ricky
political
autom
##ropri
cooper
nigger
inspector
batter
cert
dip
eff
fate
liter
nation
os
patch
powers
vers
viet
##lig
##de
##dom
##dia
##arily
##isc
##oted
repl
beam
meal
##ador
##allow
neil
aside
sheld
howard
alth
##ability
agnes
intend
minister
monkey
boston
apple
finan
desperate
metal
easily
miller
bullets
reasonable
determ
##ensive
register
louise
cleaning
studio
throwing
bags
considered
ranch
soldiers
convinc
motor
impression
empire
karen
construct
jeanne
routine
lydia
source
blonde
lisa
recommend
guarantee
jessica
sonofabitch
mozart
nix
pitch
rib
ves
##zing
##bery
thin
##sty
##imony
lip
##illed
chin
chasing
##ican
alice
albert
##uments
shoulda
affect
qual
mole
helen
thrown
adj
traffic
walks
termin
tricks
chriss
diego
hurts
confer
confess
murders
explos
admire
terribly
changing
conduct
purs
cases
football
sandwich
enemies
creep
pathetic
ashamed
rabbit
psychiatr
nineteen
unhappy
medicine
60
aven
bun
bert
cats
diz
et
horr
ii
kat
lomb
lenny
mic
pist
tag
vo
wing
##rog
##ique
##erved
##atory
##kee
##ales
libr
cand
pred
dew
##ucker
##ols
brook
coinc
mustn
cru
serial
cheer
##ggy
barry
points
hits
starfle
memories
members
respond
misery
stealing
sensitive
particularly
eventually
release
barely
pearl
advantage
although
starfleet
cure
dea
diss
ku
kent
link
lun
lack
wide
zoo
##gun
##iar
##ties
##lus
thel
##edy
knees
##rier
pros
##istry
goodness
exch
##abeth
contain
offense
workin
union
unbe
blast
puts
##ples
kinds
flatter
##quir
owns
strugg
##ansas
##icted
harder
warning
bread
capital
standard
trusted
madam
##apped
bury
susie
experi
dickie
walls
superman
based
##nesday
wednesday
ellen
appears
failure
constant
accompl
false
jacqueline
pussy
nuclear
elizabeth
lombard
14
cav
catherine
der
drew
gale
hanna
jeez
nathan
punk
teen
tiny
vit
wreck
##eb
##mp
##uate
##oh
##bl
##erc
##anie
##ares
##uther
review
shake
candy
suits
frances
sale
orange
conce
trou
shoulder
blah
screen
becoming
crush
morph
focus
thirteen
prick
interests
shots
##azz
dreaming
starling
grandfather
americans
winning
greg
direction
foolish
caused
machines
systems
jewel
brian
convince
assholes
basement
alexander
veron
janet
swimming
ghosts
laura
claudia
disturb
josh
shrink
kirk
separate
miserable
##ropriate
pic
rag
vote
##cra
##pher
##vable
infect
reh
relie
habit
##imes
myst
chocol
##iece
lets
##ittin
##icks
courage
smo
remembered
launch
setting
grandma
handsome
curse
below
officers
vision
loss
virt
valu
jewish
produc
philos
angeles
argument
sharp
jamie
ethan
narc
florida
robinson
wendy
frozen
explanation
bone
ded
lit
lower
lester
ped
pound
pac
tent
tub
##rated
##gain
##nam
##oom
##caine
##we
##ww
thumb
##eration
##ases
init
##reg
rex
bein
doe
##oops
button
outf
coulda
clin
wayne
cocaine
image
assass
minds
proced
skip
individ
humili
robbed
fully
arranged
cleaned
refuse
transport
dawn
directly
mirror
##bbie
##burg
successful
village
schedule
revenge
effort
veronica
ach
dime
duke
gut
houses
jet
kurt
soup
tas
wand
##aid
##kn
##hip
##ygen
##omes
andrew
beast
began
myster
##ella
worm
debbie
##ilar
lois
plate
##uls
##ulse
clown
march
marvel
badge
trave
served
stroke
charley
warn
warri
hurting
ahh
bargain
##anced
fifth
possession
movement
passport
snake
budd
sweetie
tests
doug
pleasant
parking
trem
considering
basic
burns
stronger
iron
dunbar
tempor
shopping
##estern
tears
embarrassing
ambass
ignor
describe
otis
unfortunately
instructions
oxygen
university
toilet
financial
vessel
dud
eric
gather
ira
ned
navy
rif
rope
tend
ut
wick
##fred
##path
##book
##atives
whist
##oma
inch
beef
hack
hamm
golf
stake
##ader
##illa
neat
sheila
atl
wore
fran
sacri
lover
loving
exerc
marcus
##pert
cruel
lotta
faces
struck
stranger
recon
surge
senior
holds
graham
policeman
##enced
engage
trained
counting
violence
delivery
bowling
suffering
politics
juice
objection
healthy
degrees
fascin
conference
chocolate
smooth
bree
horn
oak
pity
rot
tu
##ktor
##bows
##isher
replace
beck
##lder
ford
stones
##chan
##iring
chase
chip
##ops
##pper
sav
##ifer
guards
conven
bride
blown
league
minor
##cient
paran
div
attend
fox
higher
instinct
ships
viktor
parker
basically
misunder
reached
package
slowly
jumped
witnesses
prepare
labor
journey
customers
suspicious
tunnel
services
carpent
elevator
influence
theatre
psychiatrist
thelma
ambassador
13
bour
cob
cage
cable
cia
fart
hes
jill
kin
kil
mant
ni
pit
roth
rac
sore
wig
zone
##rake
##iable
##mber
##worth
##bled
thick
##aring
##ota
##omp
##vey
heck
heather
whats
stairs
noble
##odes
sac
plastic
carried
worker
scen
underground
cris
flag
slip
charges
##plex
##onscious
chris
senate
giant
stands
promotion
compliment
depos
sexy
goddamnit
patients
grandmother
article
leader
kevin
bothered
personality
basket
ordinary
closing
elliot
location
bleeding
occup
neighb
committed
wyatt
challen
unbelie
mystery
valuable
sacrif
21
cere
cott
dy
dall
dough
fuel
gitt
han
hills
lyn
mck
wat
##rison
##li
##mo
##inting
##onse
toy
mechan
##stit
stiff
steak
##aming
##illing
##oooo
alco
##ulf
##osing
truman
cliff
africa
drum
marks
intent
##agger
scan
gods
gross
##play
crook
##epend
##quis
johnnie
barbar
darlin
lawson
events
shotgun
distract
leading
palm
treated
entirely
freddie
failed
virginia
provide
revolution
snap
tradition
japanese
method
escaped
convinced
adjust
exchange
jewelry
individual
gittes
average
bars
dating
fee
hust
hood
hitting
mig
mason
makin
tan
ult
##rit
##rance
##etta
##reak
shore
shakes
forest
forces
notes
##outs
##rian
suz
##esth
dean
deeds
alter
alien
manner
sem
sew
agg
agents
clo
env
intention
##bley
helps
stops
assure
actress
supper
##prints
proceed
diane
warrant
capt
surg
decl
highly
independ
instance
deputy
goddamned
salv
satan
testify
palace
treating
##ification
estate
lampert
sympath
newspapers
claude
assignment
network
railroad
therapy
rescue
avenue
hannah
dallas
alcoh
17
40
aim
bump
cave
ease
gest
gary
kansas
nik
wings
##gle
##moon
##uing
##wray
##xx
##esis
ancient
##rell
##ays
haul
shown
##verly
sheets
chart
chuck
##anda
exit
spin
clue
happiness
bless
asks
jokes
wave
poem
supplies
mighty
trapped
headache
struct
boots
planes
pays
trib
hundreds
dealer
prevent
useful
barnes
##ugs
confession
honeymoon
films
laund
psychic
marylin
begins
maxine
protection
sandy
fortun
teddy
homicide
holes
julie
taxi
collection
intelligent
austin
surrender
lifet
dignan
sieu
webster
mulwray
pizza
commercial
horror
outfit
marvelous
24
22
45
duff
jenny
jenn
nest
nort
puff
rank
sink
sire
western
yards
##ua
##ois
##bid
##otch
thats
stor
lick
##adem
##eeze
ability
shell
##ician
##essa
device
seek
altern
woulda
##abl
becomes
joking
believes
musta
remark
swallow
flies
supply
interf
glenn
prize
skull
patri
testimony
darkness
strict
golden
enjoyed
turkey
negro
governor
mikey
geez
impressive
delivered
bowl
champion
lucy
precise
degree
reaction
mental
chemical
shadow
hudson
coincidence
iraq
paranoid
unbelievable
cotton
jennifer
aid
bi
bol
bald
cri
core
fri
mam
mate
rud
ruth
tam
wad
##rand
##gs
##hib
##uary
##bits
##erk
##aries
inn
beverly
##idate
steel
soap
herr
alvy
##osa
exists
##ears
##umn
everyday
##eman
marge
rocks
##ached
adult
monitor
academ
fletch
moral
parad
##ggin
harvard
prem
sounded
checks
billion
worrying
indust
answered
robbery
sentence
uncom
announ
profit
jersey
tyler
teaching
privile
costs
protecting
bastards
computers
former
silence
discussion
colored
suffer
washed
specific
juliet
symb
cockta
crawford
angle
salesman
remains
loyalty
channel
chamber
pistol
neighbors
200
bul
dee
dull
fever
gus
il
jen
lung
lula
pent
pages
##hold
##yard
##mar
##dra
##vest
##oura
anth
##itlin
reb
dod
##ckey
forth
outa
wanta
chee
sucks
##opard
##race
debt
##igan
##osite
compr
complex
span
trash
lex
##bels
pean
mars
grass
waitress
homework
flower
asses
actual
##ordin
mornin
owner
boats
warned
glor
trigger
compan
precious
##anca
presence
editor
breaks
figures
signature
delight
admin
salt
burgl
satell
belt
reports
radiation
beside
caitlin
dana
investment
strip
crossed
torture
document
freddy
limit
homer
cells
threatened
appearance
photo
argue
species
italy
received
berlin
embarrassed
wounded
designed
scotch
analy
strangers
underwear
disgusting
vehicle
confidential
vincent
construction
rifle
aug
cu
dw
hou
hank
kit
lu
malk
pony
rise
rude
tone
tatt
vin
vick
##ec
##gent
##nat
##lv
##uits
##pa
##walk
##itory
weal
dool
##ura
##icing
managed
plat
sector
##osen
background
didnt
spr
spect
tran
unp
##thia
askin
grady
firing
flow
bush
##quar
moron
internal
schem
boot
tries
eaten
##otted
delay
instant
retire
salad
touching
raised
students
dickson
mistakes
locker
treatment
casual
treasure
democ
solution
suitcase
federation
properly
connected
sucker
coward
dumped
existence
effects
fleet
statue
ripley
surround
executive
vulcan
surface
religious
cancel
##force
occurred
beaumont
cynthia
brooklyn
philosoph
carpenter
malkovich
bid
kate
lt
oz
raz
rape
tut
tig
takin
von
yess
yup
##jack
anger
item
##itar
##omic
height
##str
##sem
##sequ
##uries
##hern
chosen
##ryn
##icles
saint
gum
spar
concept
cared
##ously
enorm
##ortion
blade
##aging
feelin
##cience
resign
slave
slaughter
diet
wars
warren
##roit
breast
harbor
tripp
pale
edie
related
grail
oblig
detroit
fellas
patience
singer
district
media
response
##unders
steps
creatures
packed
june
dammit
196
modern
settled
prayer
granted
stanley
germans
volunt
mountains
disappointed
reverend
##uva
pirate
counselor
library
lunatic
##known
lifetime
cant
fry
hitch
ian
luther
nam
rang
rings
tact
wis
##ked
##low
##oes
##oves
##col
##cast
##xual
##onn
##esp
beating
chill
prints
atm
hers
alph
alfred
orch
##oses
##osal
arth
willie
##augh
spy
spit
unknown
cocks
helluva
poll
elvis
flu
phony
appeal
appropriate
highway
evan
column
conscience
deliber
incre
messed
concert
##lines
lessons
mercy
kissing
offering
##fortable
teleg
ordell
affairs
hoped
adventure
returned
closet
campa
threatening
pushed
julia
hawk
nightmares
bugs
sports
depressed
vampire
fabulous
loretta
widow
abandoned
comrade
preacher
buddies
uncomfortable
16
35
500
bog
cuz
dut
dill
fence
gorge
hatch
hump
ja
nan
nerves
oct
pas
poo
ripped
sack
vince
##eus
##egr
##rase
##zer
##cr
##cing
##cile
##pson
##vo
##erick
##ashing
shaw
##imum
##iments
sov
therefore
chim
sup
##rael
sab
saunders
timing
arnold
##ablish
clients
units
bluff
killers
coordin
scale
joined
belief
assault
stress
schw
parole
glory
polite
foley
invis
sits
givin
april
skipper
fighter
hearts
dreamed
brace
freeze
freezing
collar
patr
ess
subs
buildings
raw
lands
ouch
kissed
victory
casabl
meantime
valent
cryst
prisoner
convent
advance
continued
establish
quarters
farmer
thompson
lamb
##guard
fantasy
technical
technology
scientists
expenses
##standing
shields
unlike
concentrate
culture
stephen
principal
liquor
current
reservation
critic
anxious
molec
warrior
barbara
cripp
doolittle
campaign
casablanca
bachel
dna
dyn
furn
greet
kram
moss
mult
ny
nu
om
oath
site
vig
##era
##ingo
##ora
##enger
inse
bee
weir
##leans
shaking
knee
stream
##irs
nell
alley
prose
ath
frame
orleans
##ucky
##osph
##apt
mud
##action
remove
coupl
swore
stopping
handed
charged
function
christian
earn
geor
factory
retired
fallen
legit
legend
filthy
unconscious
offices
profile
entit
walt
exception
council
laughs
trucks
communist
opposite
##uggie
tastes
creasy
potential
extraord
agreement
pretending
identify
introduced
ignore
whisper
whiskey
punish
bernstein
powder
vampires
corporate
choices
poetry
racket
gabri
benefit
education
dewey
task
mysterious
exercise
crisis
storage
gorgeous
kramer
ace
auggie
cem
fog
gill
hint
jazz
mau
mosc
ross
tune
wip
yu
yuh
##away
##gment
##mur
##uine
##uated
##wright
##onment
tod
##arn
##ari
##itors
inject
hallow
isol
##adel
##irm
neut
pride
veget
##ookie
plug
##ables
consequ
troops
quote
coach
scam
##ishop
imper
afterwards
friendship
perman
listened
dism
disaster
tracks
headquar
owned
recru
##ggie
useless
grav
genuine
awfully
wishes
synd
coron
discip
straw
paine
##iety
worthless
##aws
squeeze
##hhh
imagination
frequ
conditions
superior
marrying
entering
chicks
solve
convention
practical
enjoying
advise
violent
selfish
roman
produce
yelling
mcmur
blocks
organization
leonard
generous
raped
weakness
venice
scientist
arrangements
institution
merely
kiddin
version
vietnam
nixon
##lusive
temporary
envir
comprom
august
arthur
invisible
entitled
headquarters
mcmurphy
23
bend
fond
gree
ginger
hut
jur
jus
kh
nancy
rotten
sinc
sides
tat
##ront
##lock
##car
##po
##win
##bie
##bird
##ja
##llo
wha
##isy
##otes
##otions
ing
reception
belly
wears
shu
shout
##aled
lily
##ading
##usted
##urd
assem
chose
##ello
##ppy
##ilton
manners
##osis
werew
spark
##beat
quality
unre
scout
gram
role
waitin
poker
##izes
adop
permit
acted
runnin
secure
moments
tons
booth
##acity
contest
controll
preys
jackson
driven
decor
##ibly
genesis
similar
shuttle
conscious
pulls
deton
##ivers
salary
snoop
memor
studying
classes
erin
mistaken
pops
operations
fairy
paulie
irish
packing
jumping
dennis
communications
accounts
limits
homes
drawing
reminds
attracted
receip
random
disturbed
gallagh
rowan
josie
scotty
persu
confirmed
latest
photographs
cherry
lobby
favour
sheldrake
##craft
fascinating
sacred
structure
academy
anthony
bachelor
dynam
extraordinary
moscow
gallagher
00
aids
batt
ditch
dug
lon
mand
nom
nav
pud
pup
pige
pushing
tips
una
##ras
##zel
##kind
##lon
##uous
##oan
##com
##wr
##vant
##ba
anesth
##itect
##omy
##oman
##asant
##aya
hem
whatcha
hah
##leone
goose
shy
##alie
forbid
stall
##aded
##oos
butch
neur
##essler
defe
saav
plot
##uled
seattle
exha
##enda
spider
lebows
peggy
shoulders
intim
intended
bund
grun
joan
crank
crane
sweep
faced
handling
handled
morgue
interrupt
interrog
schm
slipped
apply
cheat
businessman
finest
teresa
restra
simon
earned
colon
corleone
instr
transmission
reported
##artha
owes
ruiz
##ysis
dressing
laughed
sticks
jungle
laying
vanessa
escort
maintain
tempt
##ographer
suggestion
spirits
mmmm
architect
victoria
complaining
developed
celebrate
catholic
diamonds
epis
twisted
nurses
liberty
shelter
determined
chrissake
achie
kurtz
challenge
spanish
enormous
prosecut
environment
preysing
saavik
lebowski
ay
cind
eg
gag
hose
nas
op
option
pimp
rug
si
ske
vic
viv
wives
##gues
##ko
##do
##don
##pes
youth
##aton
toler
##esy
anch
##arter
##othing
##ombley
inner
reject
weed
havin
##idal
israel
fork
stunt
myth
##urice
socks
##rix
##eau
sum
anytime
debor
##unction
alert
manh
plates
##oln
comment
spray
sphere
twombley
lew
fucks
dram
unique
blows
##berg
marquis
writ
##acht
removed
emotions
pole
thrust
smarter
stays
traged
charm
cheated
deals
invitation
ending
counts
forgetting
hitler
explor
conspir
budget
election
sammy
grey
worthy
impulse
republ
judy
##cription
feds
daily
digging
accepted
potato
audition
criminals
sympt
balt
civilization
cooperate
ambul
incredibly
crawling
urgent
suspic
krist
citizens
expression
terrorists
sealed
kidnapped
pierce
friedman
nazis
international
options
dipl
clinic
procedure
aggress
surgery
cocktail
telegram
cemet
halloween
deborah
git
ko
kring
linc
length
pals
pike
rust
wally
ware
##aves
##sion
##ias
##iven
##iator
##ken
##hi
##lane
##mate
##ds
##pear
##born
##anch
##ania
tore
toast
whales
reve
begging
goof
shith
suc
suite
sulu
alt
manif
uses
##ifying
##olved
brut
##itts
clerk
lean
envel
drank
helm
##aches
emily
##assy
couch
swed
##pton
uhh
active
hears
boone
slut
slim
##dya
cheating
##phia
personnel
reads
opens
halfway
relative
fights
##aze
murray
burke
dropping
curios
beats
annivers
horiz
catching
bothers
merry
merrick
purple
parked
connell
hopeless
motive
clubs
evelyn
philadel
hooker
songs
custody
clarice
territory
##burger
martini
malcol
taxes
decisions
pigs
grip
customer
brandon
combination
status
narrow
assigned
activity
unfortunate
dishes
unfair
nazi
phillip
bunny
voices
troubles
wicked
shakespear
##otchka
strictly
precisely
peanut
tiger
deliberately
soviet
coupla
lincoln
envelope
anniversary
philadelphia
malcolm
shakespeare
cattle
dal
dame
kend
kling
mun
nit
pose
pipe
rans
sig
ts
tis
uta
yan
yacht
##gic
##zed
##zlo
##lict
##mail
##put
##iture
ink
inher
meas
goal
shitty
livin
##iro
##ament
##eeee
soda
abuse
##hers
pra
prime
frida
##iled
##artz
maniac
sequ
seats
select
guin
guide
exped
exagger
##ums
##aph
clothing
engin
##berry
integr
scully
wrest
groc
joanna
waves
waiter
adele
hiya
##shot
resent
recent
diary
meetings
warp
sons
##what
shove
obst
questioning
bitter
explo
syn
corp
sorta
messages
##attan
drawn
draft
##lina
subst
##umbo
beloved
studied
tested
visiting
radar
absurd
entrance
vienna
suns
basis
seventh
kicking
garrison
norma
normally
closest
torn
locate
ninotchka
romance
sucked
bandit
observ
##burgh
sharks
skinny
hostile
hostages
issues
##leton
flew
daniels
booze
combat
mccoy
dragon
rumor
concerns
chapter
blanket
confirm
religion
##elein
results
##belik
fashioned
betrayed
assuming
invented
certific
kubelik
wandering
traveling
surgeon
cobb
waters
suzie
interfere
symbol
##osphere
tragedy
cemetery
kringelein
curiosity
utah
engines
bishop
dway
dict
econ
egy
fuss
fits
fisher
hunch
jed
jere
jelly
kong
kings
kenny
mong
martha
pile
rico
tin
tale
voy
wyn
wander
##rome
##rating
##rup
##ridge
##foot
##pers
##power
##wire
##va
##bal
##inity
towards
##esc
##aron
##itate
##itable
##itated
##rels
heav
rey
rein
weigh
sheep
##alf
sting
stalk
liver
yourselves
canada
sof
outl
outer
##rial
##eller
##pps
##ested
deer
##ained
lovers
##ulated
exhib
##endid
maya
fuckers
workers
needn
margar
maranz
gran
crus
crimes
swamp
##daya
playin
phones
traum
##shire
paras
worlds
division
##pense
accused
cleared
payment
eats
highest
relatives
skirt
franklin
passage
bits
airline
steam
papa
grandpa
winner
samuel
propose
proposition
landing
fools
##onym
operate
purse
pengu
##visor
judgment
roseb
raymond
severe
creative
brick
busting
motion
197
doubts
bleed
discussed
peaceful
requires
threaten
suspected
sailing
constit
surviv
wheels
ruby
rubber
cameras
ideal
hostage
arrive
receive
harmless
creek
generally
nigga
laser
santos
borrowed
scientific
goddammit
graduate
mallory
logical
cuba
patterns
carpet
bernie
stinks
trailer
lecter
slightly
literally
morpheus
pacific
tremend
laundry
administ
yessir
crystal
furniture
dwayne
egypt
bent
biz
cried
dates
eag
epps
ferg
faint
gy
gor
jay
lame
mol
nich
nuth
rop
ripper
vom
wins
##rad
##now
##hand
##lan
##fl
##dale
##aney
toe
tool
whit
##arian
##ete
##otta
##aser
rear
haunt
##leaf
##store
shine
##imore
##imeter
donald
knox
stir
lion
sock
##inky
upper
plague
seb
ohio
guid
guilt
arc
##aste
backs
spill
brush
carol
lev
mock
mulder
grat
greater
##ogs
morgan
string
insp
charity
glob
walker
ahhh
tennis
presume
edgar
thirsty
sketch
possess
##encer
madman
blackmail
incon
eleph
sentiment
##ieth
raising
bela
distress
hairy
smaller
fooled
merc
merle
explained
operator
penn
costume
floating
treves
jewels
juno
torped
violet
violation
limo
cooking
folk
obsessed
mexican
balance
effective
creeps
randy
laszlo
##anoff
necessarily
wilson
magnific
temperature
barton
naive
spoiled
deaf
prospect
struggle
producer
engagement
independent
alcohol
paradise
satellite
scheme
atmosphere
schwartz
patrol
valentine
gabriel
werewolf
baltimore
ambulance
maranzano
bam
cord
cunt
dub
dyle
fid
fiction
ganz
kyle
lance
lane
lugg
luthor
mush
od
pip
puke
rm
rode
rita
vaugh
wagon
##eu
##rus
##gage
##tw
##mouth
##pting
##bow
##bag
tox
whoo
whip
##order
##orters
##aroo
reggie
dock
dolor
##stick
##kel
stacy
wasted
noon
butcher
neo
neph
sheet
##rack
worries
orph
locks
plumb
sel
exter
comic
##astian
meanwhile
##ummy
bren
brady
mayo
tram
##osexual
callin
leland
lemon
enquir
enforce
que
queer
unex
molly
bub
##ueger
puttin
leak
thrill
##izer
ador
perp
monsters
flip
flood
missiles
disks
lawn
interfer
##ansky
parr
##acon
polish
compound
previous
capacity
drives
surve
meters
highness
questioned
colors
##ials
consum
starving
sorts
retard
retrie
forgiven
ridd
##oleon
concl
samples
maggie
muscle
annoy
officially
impact
landl
##cover
protected
demons
entered
prisoners
deeper
damaged
publicity
##grim
turk
crossing
boxes
##rington
circus
production
cookie
require
sucking
apology
electron
photos
physically
recognized
##ography
gifts
feeding
intellect
searching
shocked
scares
include
magazines
rumors
bonds
broadcast
gamble
krueger
commissioner
matth
matrix
stewart
engineering
bait
napoleon
dentist
transferred
ronnie
liquid
porters
montana
##nolds
negotiate
puppet
rehears
basketball
intentions
captured
houston
##natural
surrounded
reynolds
sebastian
dolores
80
ari
bike
cly
cities
daught
dyl
fats
ich
jeep
mi
mim
mouse
mookie
nag
ooh
pitts
rage
riot
ss
sittin
tack
vent
##aire
##gate
##hill
##lot
##lers
##ffe
##mony
##uard
##diction
##wy
thread
##inated
thea
##anor
tops
inna
##keys
##aly
##aling
##imm
donnie
lila
##cho
##ira
cany
##illance
chan
chess
howdy
##ryl
orbit
plants
##ulting
seym
ohhh
coma
compens
comedy
backwards
conqu
##umber
carr
carbon
amber
tramp
envy
##agers
##angle
crown
smack
smiling
boyd
actors
##cia
handy
phrase
##anks
display
guessed
##attered
mothers
laz
strate
momma
##pected
beings
slam
sloan
apples
contrib
commod
##rove
sixth
gloves
walkin
aha
compared
deserved
drivin
eduard
excit
exclusive
ape
skill
award
passes
behalf
milo
humans
madison
##cca
speaks
answering
bodyguard
strain
collea
filed
refused
reflect
wallace
causing
reporters
davis
##zzle
sunny
treaty
destruction
involve
knocking
deeply
##box
risks
violin
screwing
carlos
circuit
possibilities
homosexual
westley
splendid
wilder
williamson
angels
hooked
physics
suffered
survived
auto
autograph
pilgrim
melanie
fantas
matches
customs
chaos
claims
excellency
lifted
hawai
nailed
jacob
corru
steward
engineer
injured
primitive
associate
reverse
entertainment
insulted
embassy
assumed
wrap
##keeper
convenient
deposit
ceremony
mckenna
gesture
announce
privilege
democr
philosophy
wisdom
sabot
juris
pudding
manhattan
conspiracy
symptoms
diplom
succeed
jedi
wynant
fergus
unexpected
matthew
dylan
seymour
75
ding
dur
fame
foul
hip
ivy
jody
kip
lime
pope
penc
ral
rio
rats
sust
sic
sins
wounds
##rors
##got
##nic
##iance
##kman
##hole
##lante
##yer
##cott
##bes
##xim
tools
whale
anonym
##armed
ingen
inquir
reass
measure
hav
##cktor
shed
shap
##char
##chester
##anta
withdra
asian
worship
frust
alike
##usions
##arte
safer
spagh
brun
leather
lecktor
happily
muff
marie
##the
daylight
writes
helpful
probation
smugg
monica
acid
acce
flame
serving
parent
inspir
brew
compass
chron
capit
resting
christine
relations
murphy
colony
##ivity
infant
##encing
india
delicious
bene
defensive
arrog
drops
curs
painted
dragged
##lined
subway
natalie
raoul
proposed
musical
transl
owen
kingdom
entry
centuries
coffin
operating
fairly
repair
covers
penis
attacks
honored
##ificant
smelled
illusion
kicks
strikes
borg
practicing
histor
tort
formal
detectives
silk
silent
documents
hyster
investigating
investigator
suggested
heroin
praying
wheeler
francs
batman
fingerprints
contracts
climbing
stanwy
chairman
venkman
arrangement
yeh
extreme
cosm
analysis
laplante
knights
holland
typical
lecture
registered
explosion
flattered
accomplish
disturbance
narciss
##ulsive
dudley
whistle
mantan
sacrifice
##osaurs
cocksucker
coordinates
multip
sincere
vivian
lewis
dramatic
horizon
expedition
rosebud
tremendous
eagle
magnificent
nephew
perpet
surveillance
clyde
daughters
jurisdiction
spaghetti
ax
ack
ara
cass
dow
dive
erica
fu
fulf
gin
gym
hans
kl
kal
len
lest
maker
pod
porter
rit
ranger
sut
sout
sank
tire
vod
vouch
woo
wipe
##elf
##aver
##rd
##rett
##iere
##zil
##list
##lah
##far
##mark
##uf
##uum
##coming
##pot
##point
##wald
##bler
##ís
##ít
##äng
##erie
##anes
##oting
inh
hald
shh
shack
shave
##see
##aline
forms
##chair
nost
soil
##tery
##tering
chet
##icip
##icans
worn
seein
##ainted
placed
selina
gull
expense
##ola
##abelle
backup
spencer
##umes
bron
mayfield
pecul
quad
unst
bloom
blaming
scent
scoop
undress
underne
undercover
joel
waits
##izz
swan
sworn
##atched
minnes
perm
##iley
acts
actions
understands
players
##ogue
stayin
##mann
##eyer
nicely
##ocks
parlor
bold
slice
slap
hardware
content
breed
glen
desper
desmond
schools
gib
presents
sleepy
promises
ski
stepped
sends
region
artagn
bobo
annette
classic
straighten
error
addison
nickel
marked
##zech
published
tread
feather
creator
absolute
returns
communication
198
islands
girlfriends
furtw
souls
russians
obsession
frightening
taransky
expand
july
jammed
marshal
crawl
employee
description
gambling
toothp
mutual
chopped
mortal
josephine
cathy
cowboys
ronald
choir
debate
slightest
stevens
sophie
institute
batteries
ribbon
constantly
ignorant
atlantic
tube
razor
orchest
bracelet
consequences
gravity
syndrome
##birds
episode
aggressive
warehouse
ransom
nuthin
vomit
enforcement
canyon
excitement
stanwyk
vodka
##ängler
peculiar
underneath
minnesota
artagnan
furtwängler
400
bapt
cater
caut
codes
czech
dix
daw
dante
fans
fettes
hence
ike
jord
jaw
kor
kra
lamp
mast
pg
posed
sis
tenth
vib
vern
wack
wired
wires
yon
##not
##fly
##uu
##oons
##pack
##pol
##bell
##bac
##llie
whores
##uted
heel
reun
beans
sham
shred
stations
lilly
##ighty
##antine
outs
sull
##opath
uptown
##icop
##icient
##rah
##estic
alab
sax
sauce
guild
##olve
willow
spons
spotted
amate
leopard
needle
oklah
quaid
mug
marvin
scumb
hull
helicop
gru
oldest
##udge
swana
mah
maf
maurice
hockey
ministry
fax
phoned
stubb
tomb
schol
##nerable
attached
harris
tribe
drift
childhood
eastern
countries
eatin
sets
genetic
differently
airpl
##encies
hunter
##negan
dinosaurs
fireman
almighty
snakes
snuff
burst
winds
##ippi
arrow
raid
greedy
bitches
straightened
medication
addition
fooling
psychotic
psychological
informed
squid
merch
imagined
flynn
maxie
penet
fixing
blowing
trevor
illness
chickens
iris
rocky
193
bombs
halluc
carla
discussing
rolling
temple
directions
contacted
programmed
heavens
tracking
approve
drawer
broom
levels
specim
examined
exposed
slee
berke
niggers
immediate
grabbed
satisfaction
scottie
sources
punished
immort
buffy
poisoned
nicer
nicole
depressing
separated
psychiatric
powell
stephanie
dignity
latin
thorwald
improve
corporation
seduce
tables
electrical
resistance
kathryn
drowned
battery
patchett
sheldon
chrissakes
sandwiches
candidate
utter
##stitute
altered
industry
pentagon
chimera
supre
wiped
neutral
dynamite
exhausted
anchor
kristen
shithead
kendall
sunset
voyage
survivors
pittsburgh
ralph
ritual
vernon
oklahoma
scumbag
bian
bunk
bio
bai
bingo
dread
etern
gino
hind
hart
hong
kel
lin
lid
linger
mount
niece
ole
rational
sang
sane
vicious
vault
wich
ze
zack
##gir
##face
##function
##meyer
##uctor
##uana
##oir
##cles
##corn
##bone
##ji
thie
##eries
##inal
##inations
##atics
##atically
##onia
todd
##eness
##otics
##omet
##reh
##vember
hector
bean
bears
weep
habits
##idor
##state
##stock
stair
##ched
november
##uster
##illac
##urb
##urate
abd
##icates
##elli
##andal
##unning
##gel
##istics
##ulty
seed
##olves
ark
##abet
spying
letty
##umph
branch
offended
carn
clues
happier
overr
overnight
drill
unable
intense
coin
coco
##agen
scram
##thin
fires
wax
remote
poly
pointing
##uded
swann
smash
smashed
mini
minimum
##onda
##quet
craft
minded
owners
##pret
strand
schul
proves
proved
insight
prett
boil
slide
charl
dial
diagn
meets
chef
##phis
watches
harass
triumph
compare
prey
deserves
capture
tense
##ancing
picks
metaph
breakdown
darryl
##ibilities
reliable
possessed
##ugos
conflict
indul
indians
brazil
corps
starship
closely
deposition
freeway
sniff
collins
hush
burger
fellows
calvin
peters
curtain
submit
memphis
cleaner
proposal
haircut
bucket
buckaroo
medal
leaders
contrary
keaton
psychology
catches
popcorn
teachers
humanity
causes
purch
covering
connie
larger
advanced
##cript
ringing
quietly
195
pissing
visitors
cecile
opposed
frederick
##teenth
cooked
cookies
fields
heroes
label
mirrors
judgement
shares
crashed
smoked
expose
portra
begun
##aude
melt
dancer
authorities
assistance
pockets
spiritual
##itzer
sweater
requested
released
austrian
disappointment
kirsty
encoun
referring
chemistry
album
disgrace
printed
savings
fiend
lawsuit
various
primary
whadda
whaddya
types
briefcase
thorough
competition
priority
##ijuana
stamps
regarding
whacked
demonst
cadillac
terminal
experienced
crushed
morphine
infected
relieved
hammer
rothstein
ultimate
remarkable
rudy
dodge
cheek
tattoo
wealth
breasts
rangers
dismiss
compromise
achieve
cindy
koessler
penguin
adorable
channing
hawaii
withdraw
beneath
jordan
reunion
alabama
28
31
aa
aaa
bass
bisc
cough
ein
ere
eld
eug
ego
foss
gau
gaz
hilly
iv
kry
lys
lama
lined
pend
pond
roo
rice
rounds
session
tide
tib
vag
waking
##eous
##grove
##nick
##zona
##kward
##har
##life
##fish
##mith
##oly
##cie
##burn
thus
##ourage
##erous
##atown
theories
##onna
##onies
tobac
##orse
ank
##oty
##ito
inches
reilly
meals
haf
goat
goss
shuff
myers
##amas
##eem
##urning
sod
allen
allerg
aspir
chairs
chased
##opp
##icorn
##icidal
alas
maneu
goods
twins
amusing
click
clip
ens
needing
quant
killin
intact
##elope
cocon
hugh
huey
underest
##ewell
grows
grounds
root
remar
kindness
crop
cramp
crunch
coup
hollow
flirt
remembers
remembering
disgu
tracy
##shine
strings
resour
slack
contra
harsh
harrington
##iana
dealers
cape
farewell
shovel
mete
evolution
copies
copper
skills
eighth
beds
awkward
simpl
##aza
bites
columb
bravo
income
bench
messy
robber
element
calcul
artie
curt
beaten
memo
annabelle
distinct
reform
safely
visual
imply
ernie
sells
keith
absence
##hhhh
hotels
privacy
float
sticking
treas
bosses
birdie
irre
convict
rocket
denied
woody
##oids
fatal
romul
limited
investigate
contacts
equal
programs
suspects
##ruder
suggesting
argon
specif
tricked
wheelchair
autop
lamar
rented
malfunction
bearing
grief
organic
danced
cockro
civilian
banana
boost
laurie
hamburger
austral
talented
corresp
buffal
encoura
reckless
cubans
servant
chains
activities
rhy
accomp
hollis
facing
facility
dummy
tanks
porch
passionate
hoover
nuns
abandon
faggot
comrades
anxiety
favors
automatic
lipstick
kentucky
initi
andrews
breeze
beckett
divine
fortunate
lungs
spectac
volunte
##onnect
molecular
cripple
insect
receipt
navig
interrogation
manifest
brutal
margaret
constitution
bizar
inconven
luggage
arizona
anonymous
southern
mafia
berkeley
wichita
schulz
hillyer
tobacco
gossip
correspond
bou
bin
cows
dart
eager
gast
gek
gates
iren
keen
lux
mour
nash
naught
pension
sway
tang
tina
tender
vague
venture
vader
yer
##ns
##ih
##iency
##mates
##uk
##dan
##ded
##cour
##wall
toes
##inging
##ington
##orate
##esome
##aration
##iser
##etically
##oto
##asis
indy
##utt
heels
becker
meek
##iding
##cken
##immer
donna
stare
stens
stores
streak
lill
##verted
##amus
##ooo
outrage
##ria
##riger
gotham
chips
prote
##iel
##essions
##rav
welles
alib
manip
manchester
loom
##ifies
guitar
##olas
##akers
##ober
spank
bru
offers
ambr
overl
overwh
overhe
quitting
##employ
unemploy
##elm
cozy
scum
##thorn
##issions
heller
godfather
gren
roast
helpless
##nings
putter
emil
thrilled
kindly
elena
cruc
probe
advert
swine
perf
theirs
fla
travis
tragic
household
mora
lazy
parade
slick
appet
readings
finance
accent
accurate
triple
trips
dealt
drif
cuts
pointed
easter
excuses
standards
decides
booked
breaker
darn
gracious
towns
confusing
confront
passenger
behave
shootin
blacks
diner
dining
depart
depth
benny
follows
##apping
##okes
returning
ridge
riddle
feller
define
regan
##ippin
##ippers
touches
petty
cured
winston
legally
drapes
filth
distant
horny
refriger
ballet
balloon
visa
transmit
medium
reporting
landed
surprises
merger
operational
superher
cannon
paperwork
feature
respectable
##balls
affirm
brig
hopes
solar
194
199
##boat
vanished
##ova
ninth
visitor
circle
belonged
modest
connections
sanct
filling
##etched
equipped
photographer
anticip
sufficient
farmers
creed
prayers
terrance
audrey
blocked
frighten
smokes
examine
towler
buzzing
queens
technically
titan
scaring
interviews
identity
identified
motherfuckers
oliver
represents
freaks
hamp
planted
sneaking
graduated
celebration
depression
cosgrove
##backs
bailey
fiance
##ylum
concentration
cabinet
dispatch
##aaaaaaaa
therapist
panties
puppy
hobby
wrapped
certified
qualified
bertrand
dedicated
thumbs
efforts
travell
instincts
wigand
scenar
methods
alternative
vinci
legitimate
isolated
coroner
corpse
certificate
sentimental
vaughan
orphan
conclusion
acknow
haldeman
helicopter
gruber
thieves
tibet
meteor
buffalo
gekko
affirmative
300
70
ais
cin
ced
cod
dre
dap
dated
dork
ec
effic
fink
fare
hound
hats
jas
jag
kob
kitty
lant
lod
lud
mace
mature
maude
nay
null
nuke
oth
peep
pms
penth
ras
rend
satch
tuck
tum
ties
vow
wiz
##roth
##zak
##tight
##hard
##fight
##fol
##fire
##mart
##mund
##dog
##west
##bra
##eria
##inite
##oran
##enstein
##etor
anderson
rebe
rebels
dol
##lection
##step
shang
##alt
liable
##cel
canad
##illes
##urre
##ctions
justin
asylum
atomic
##icating
somewhat
##ilated
manuf
orson
##ulars
sept
##osh
##osaur
##obot
spite
spoon
brass
twent
amend
amnes
ambit
trous
claws
lech
enlight
enzo
afric
##ember
unw
unple
unicorn
blessed
scoo
helms
roach
leavin
throws
listed
realistic
monkeys
flav
suppl
disag
disres
deadly
housew
resume
parano
slob
slapped
##hne
johns
##phin
attic
fold
harvey
##avis
barrel
presum
eddy
drinkin
excess
promoted
eval
evac
grain
awesome
confusion
##rete
lighten
lightning
explore
explode
consult
steering
##enses
retreat
admitted
elements
patron
murderers
painful
dragging
subpo
##umbled
transm
imperson
oui
errand
owl
losers
psychologist
images
explains
freaked
condem
toto
cafe
superst
micheal
penit
gently
palmer
jefferson
pressing
courtroom
peach
conviction
##ikes
footage
destroying
responsibilities
torch
communicate
cigars
verd
rolls
rolled
hyd
##ugged
continent
castor
castro
philip
cellar
electro
smokey
massey
arguing
sensors
julian
depending
vacuum
cameron
pilots
faithful
therm
sara
fingerna
cracked
symph
massive
ambition
precaut
originally
satisfy
sweating
roses
suspended
domin
domino
lauren
complaints
galvin
rabbits
horsesh
discovery
militia
scotland
graduation
european
purely
mortgage
management
spells
hypoth
pillow
mathem
commitment
journalist
dumper
acquaint
lesb
internet
dimension
barnett
december
porno
gabe
despite
fraud
chinatown
dizzy
predict
struggling
caviar
picnic
procedures
kilos
traditional
hustle
declare
shells
patriot
negroes
iraqis
glorious
companies
burglary
retirement
slaughtered
alpha
pooch
greetings
punishment
controlled
forbidden
instrument
writers
klingon
yankee
integrity
##rupting
administration
arcade
enquirer
stewardess
sabotage
pencil
unstable
orchestra
sponsor
airplane
supreme
bianca
portrait
eugene
autopsy
bizarre
ambrose
perfume
moraes
hampshire
daphne
lantern
rebecca
manufact
amnesia
unpleasant
disrespect
26
99
aaron
bore
bain
bien
cum
cort
cork
dot
dary
eri
echo
fade
fug
fract
hend
jig
jade
nud
py
pulse
ratt
rene
tel
tiss
veter
yak
yield
##rin
##rent
##rest
##gal
##gia
##nia
##kers
##lene
##fus
##fman
##yy
##mes
##mers
##mine
##uest
##uations
##oups
##inter
##atures
##anity
toys
toky
##llor
whe
##orc
##edge
##arine
webb
haz
shan
shared
donut
knives
stim
stable
##child
##ads
noises
##anted
butler
allison
allows
asia
shep
chum
chek
chump
##icians
##rain
herbert
ali
alto
saints
manual
mankind
telly
loaf
user
##ulpt
##osure
##ifton
exorc
conk
amen
amour
##aparte
ages
clifton
overd
##emann
marion
maria
maroon
marla
sculpt
hug
wrist
lovey
rogers
joker
jockey
wald
##active
believing
emma
poster
elimin
##udy
crummy
smear
maze
homeless
perimeter
##ogen
phant
traps
craz
tomato
fathers
##shop
interrupting
residence
insom
slay
hardest
breach
watchin
##onsider
##mmm
payroll
chrom
barren
decency
highland
setup
graves
gene
jeopard
heartbeat
signor
##erton
##ivan
lighter
indo
install
factor
expectations
disconnect
watergate
benn
buys
retain
messing
burg
burt
pains
millionaire
natives
studies
classified
extension
profits
refuses
hairs
testing
dicks
owed
merlin
conductor
martins
penelope
sunlight
sunshine
carryin
consideration
destruct
burnt
valiant
irres
irrit
bribe
buster
sherman
acres
devoted
daisy
lowell
rising
fortress
ladder
disappearance
continues
macfar
elected
hookers
masters
survival
relationships
crashes
towel
travels
tearing
weekends
january
pageant
civilized
performed
characters
speeches
weathers
magician
domestic
switched
volume
femin
kaye
nails
employees
bonus
bonaparte
pregnancy
immig
ruining
approaching
corridor
funds
tuna
logic
crowded
perspect
fabric
association
rarely
kidnapping
pierre
entertaining
defendant
leslie
deceased
electricity
counterfe
kathy
katharine
tossed
spooky
swinging
replaced
micr
experiences
gregory
picard
infection
rehab
virtue
##weight
atlanta
bourne
occupied
lynette
friggin
debts
delighted
wealthy
tuttle
toddy
adopted
snoopy
persuade
pigeons
anesthes
defeat
grunemann
schmuck
suspicion
goofy
guinea
brenner
strategy
fantasies
sicily
lestat
dawson
eternity
hafta
curtis
naughty
penthouse
shangri
trousers
african
subpoena
penitent
tokyo
chekov
macfarlane
34
38
42
800
90
bate
baked
cuff
dell
dess
dash
era
fest
fist
fian
fuse
fries
gt
gw
gulf
hick
hiring
jar
kast
kau
lust
lend
lones
loos
lugos
mild
maps
oo
pam
pus
pul
pub
pork
rash
tah
tapped
wag
##eger
##ait
##rod
##rence
##rise
##giving
##iary
##zes
##hy
##like
##fall
##dor
##oen
##cet
##card
##piece
##jah
thigh
thunder
##erd
##erate
##inate
##atra
##oning
##anian
whew
anton
##isco
##omed
##utes
whatso
begged
beavis
wee
doo
##stood
goeb
shag
shining
##sex
donny
sty
stoned
##adays
noir
##ooke
##urer
neural
sox
sober
abort
abortion
##ctic
##rich
pritch
anyways
anythin
##icit
##elled
veins
##ppie
##raph
wholes
deed
seeking
nowadays
loans
##igo
##isticated
semin
##olo
##olet
##abouts
##obe
##obile
conway
bras
brody
brok
brenda
twelf
carri
careless
leia
enth
quince
##emm
une
movin
mollie
blink
mueller
killaine
marx
marine
margie
intri
##elway
scal
scandal
grid
grub
groups
mustang
keepin
partial
mines
pervert
understudy
flush
missile
##intend
##ques
guessing
headaches
laval
interior
proven
roommate
hardy
funn
sixties
persons
finn
finch
compar
compos
compreh
tension
edmund
damnit
sleeps
counted
obl
frankenstein
wished
##erts
##retion
delicate
importance
incomp
discreet
discretion
sickness
saloon
arts
curve
concrete
redi
recording
subtle
annual
refr
radiator
jerome
population
freaking
maxwell
supernatural
michigan
quicker
costello
demol
creating
roads
reaches
shortly
convicted
damone
chiefs
norville
motiv
denver
neglig
armor
devices
upsetting
wooden
digest
digital
##ovan
directed
tracked
obsc
politician
innoc
traveled
panick
buttons
sarge
orient
opinions
terrified
lyin
settlement
scrub
identification
claimed
germany
flea
cycle
cycl
employed
directors
described
wilh
cornwall
reactor
mobile
graveyard
celebrity
executed
mentally
reference
junkie
vulnerable
unlock
maiden
stabil
stabbed
jacques
avoiding
insisted
lizard
occasionally
underwater
mackelway
##ooter
bounty
frag
shaft
##check
channels
vehicles
vincen
determine
motorcy
pursue
creepy
cruise
containment
accomplished
lombardo
narcotics
transportation
dudes
gathering
misunderstanding
misunderstood
laboratory
dyin
cloak
alcoholic
charts
northern
chemicals
adults
dwight
vicki
heights
obliged
alphabet
increase
nanobot
october
vigo
permanently
jeremy
guidance
levi
gratitude
global
elephant
torpedo
retrieval
landlord
rehearsal
compassion
arrogant
cursed
hysterical
desperately
treadstone
scholar
lingerie
encounter
einstein
allergic
alibi
loomis
overlook
appetite
aisle
##hardt
september
fingernails
erik
tissue
wheat
conklin
perspective
bateman
dessert
kastle
lugosi
whatsoever
goebbels
pritchett
twelfth
enthus
cornwallis
32
41
48
auth
aster
barth
banged
baker
bryn
bacon
cate
coy
dere
dmit
eject
fier
fountain
hink
lle
mt
miz
ost
pine
pne
pens
sessions
tee
vood
vital
wo
wakes
zomb
zuz
##sky
##zon
##lar
##fr
##fuss
##mia
##cake
##cony
##post
##woman
##jo
##jud
##11
##oust
theor
theft
##anas
##inge
##oring
##arms
##eton
##itan
##omer
##ometer
beard
beers
##leine
shin
shipping
##keep
##imo
knots
lil
##ching
##chez
notion
nolan
##omew
##amins
alleg
##river
chi
chow
choo
chalk
choke
upside
##rap
worms
frost
wells
##user
teller
##oli
##olomew
backed
backyard
spats
theme
##umann
brock
mayh
caro
ammo
amanda
tray
trim
trump
##bec
peck
##emois
unpr
unne
blake
blair
hass
marlon
scre
scored
##issippi
lovebirds
longest
finder
embe
elij
##uding
adren
##fton
mississippi
fazel
handles
##orde
madeleine
morris
serves
strung
interpret
resort
resem
parry
insign
reconsider
divers
cheers
hurric
glimp
accuse
clevel
foundation
ahm
prel
invention
caps
##etto
stuffed
barber
barney
prescott
edition
restrict
christy
casey
bookstore
hopefully
graff
##gins
indicate
conserv
braces
huntin
mademois
stepping
chancellor
dinosaur
##oked
admission
salvy
burden
eleanor
calc
##ippe
articles
stupidity
##apsed
recorded
richest
extract
experts
transit
impat
##tenance
lando
landon
contrad
loses
nearest
protest
marker
controls
mouths
kisses
penal
##zzo
attacking
##bridge
basil
respected
peaches
##iki
advised
sandro
welsh
ringo
risky
mainfr
campus
greenleaf
carlton
circulation
claus
cept
disappearing
horseman
sanchez
estim
estimate
preparing
cellular
threats
idiots
approved
approxim
senses
yelled
percentage
potter
##ographic
examination
moonlight
existed
theresa
##ropol
doris
balcony
massach
projects
marshall
identical
olive
purposes
opportunities
mccord
corners
mutant
villain
cosmo
shirts
pumping
pearls
recommended
disposal
hypoc
kidnap
dental
scheduled
spreading
clayton
principle
materials
shhhh
pirates
incidentally
banging
cynical
##igel
250
sophisticated
bounce
phillippe
recovered
literature
affection
etc
##rogen
caval
relief
##regon
rexroth
horns
fletcher
gloria
companion
duties
crippled
##irsch
permanent
greek
detonation
bundy
thrusters
potatoes
##borne
sofa
haunted
acceler
capitol
undressed
gibson
sullivan
amateur
stubborn
krypton
lyssa
shuffle
maneuver
disguise
lillian
overwhel
rendez
wizard
lechter
acquaintance
hazard
phantom
fianc
kaufman
lonesome
composer
wilhelm
bartholomew
dmitri
pneum
voodoo
zuzu
unnecess
elijah
fazeli
hurricane
glimpse
mademoiselle
44
aah
auction
bah
bats
cz
clem
capp
cunning
dorm
duct
eter
faking
hast
hating
hana
iced
kinc
kron
lump
loop
nations
nigel
oven
ols
ounce
panc
peak
rul
rena
soo
sings
tires
ul
ugh
va
vanc
voc
wud
zira
##ext
##sp
##rust
##rator
##name
##names
##nik
##iors
##tiff
##fied
##mel
##master
##uy
##oven
##pons
##wely
##vous
##bro
##ouver
##erman
##inent
##inery
whiz
##org
##orous
##orty
##enmeyer
##isk
##isance
inapp
inex
whati
beware
welf
haird
##secker
stad
stag
stool
stakes
stead
lions
##cht
##chief
##chev
##ams
##amis
##ooper
soze
ally
outdo
##oded
sul
sump
##opic
##opia
uptight
##icut
worf
worsh
frog
fridge
##acks
alg
saus
##ively
plaza
##ulator
segr
sefton
arson
##endel
spain
spice
spots
convert
brooke
twin
offend
amuse
enh
enlist
pepper
quinc
drool
drama
bluest
betsy
##elance
##elius
bugging
scope
##thouse
##issy
happenin
wretched
sorrow
gro
grades
grendel
roots
empt
##asses
kidney
crumb
croc
adolf
advisor
swiss
hoff
mint
minim
minus
lotte
uhm
courthouse
flop
misses
missus
assess
##inton
phoen
traitor
##eeney
sera
##shed
lax
##print
stroll
intercept
schiz
##acing
##igned
contempt
dieter
turner
glam
readers
##mmmm
clement
harvest
payin
compartment
##avitz
farms
pawn
senor
endanger
sounding
prescription
childs
childish
eyed
figger
darrell
supposedly
speck
complications
compliments
graph
franky
infer
deaths
##ontane
sylv
hunsecker
cora
discoura
alma
##oking
##ologists
burgel
regiment
regulations
secretly
liking
magua
rae
proposing
grease
classy
perfection
distrib
radical
addict
absent
psychopath
felson
jerks
squat
##rams
prototy
tyr
freud
freelance
vibe
##coat
martial
paula
pauline
##visions
fixin
musician
earthqu
courtesy
valet
growth
##boro
solo
##aaa
sherry
closes
torrance
##ilians
teams
appreciation
fears
maintenance
violated
sadd
circles
cecil
ceiling
roller
gerald
limb
models
connecticut
apologies
joining
suggestions
grounded
bowler
ants
##works
holiness
tales
rains
sharing
pinned
cups
searched
climbed
supportive
organized
deserted
attraction
receiving
shocking
professionals
##lights
dupl
bells
randall
lindenmeyer
puzzle
ambush
interviewed
lucas
rapid
videos
brandy
virgins
urge
rosa
venge
galax
provided
hamilton
ripe
disturbing
broads
broadway
languages
gambler
cornelius
180
plaintiff
chopper
encourage
snapped
cuban
witches
stinking
magnetic
guaranteed
150
injury
associates
whaddaya
holler
typew
journalism
jonah
occasional
panthers
challeng
shadows
despise
bartender
oooh
application
chewie
clouds
drowning
benefits
kiddo
vietnames
pursuit
candles
teenager
gregor
initials
##regard
assassination
humiliated
bourbon
##worthy
crooked
hustler
salvage
sympathy
duffy
tamper
delightful
dwar
dutch
jaeger
paso
nyah
nuisance
whispering
maureen
discipline
unreal
adopt
lonnegan
pigeon
nasa
helmet
grocery
substant
heavily
ropes
toxic
forgiveness
corrupt
muffin
inspiration
multiple
dixie
specimen
underestimate
contractor
australia
gaston
meeks
flaemm
scenario
canadian
paranoia
symphony
lesbian
altogether
bennett
categ
fierce
llewely
cleveland
mainframe
approximately
rendezvous
unnecessary
eternal
kincaid
vancouver
inappropriate
welfare
segretti
quincy
bluestar
phoenix
vietnamese
llewelyn
27
29
ak
bir
bic
bik
cau
cue
cush
dine
drey
ecc
fib
fert
fetch
gown
horm
hicks
ils
kinky
ling
lag
lund
moth
obe
pace
rave
ripping
sou
tid
tch
vows
zavitz
##sis
##rr
##rill
##rine
##rane
##rina
##gus
##iology
##hop
##lay
##front
##yll
##uating
##och
##overs
##cal
##core
##bat
##bby
##break
##ouri
##onic
toon
##lla
##orp
##oral
ana
##edict
##owing
##etical
##etics
##itage
##itary
thatcher
##uties
rek
rely
reel
revel
repress
revers
beeth
wease
meyer
hauser
##iders
shir
##iman
donít
donovan
stitch
##verse
notions
##ithium
##ammit
##enton
##entially
candle
##illery
nev
nex
abst
##eable
chad
chili
##icity
vel
##racks
##eston
herb
righteous
lookit
mansion
##gey
loath
logan
##ista
whereas
##olt
##olph
arse
aramis
spear
spaced
conrad
##ours
offensive
carson
aged
clut
clair
leff
enid
enri
makeup
##bean
overse
unload
mold
moore
blunt
bets
hash
marcia
intu
intimate
coha
scound
scars
undert
lovejoy
helena
groom
waving
remo
##anges
emer
leap
leagues
##assing
##tage
##perd
cro
adrian
swat
##ptic
hog
mining
uhura
monstr
flames
missouri
assured
phase
phoney
pharm
disrupt
##quire
##quette
##quila
crabt
crabs
##redict
mindless
headlines
resident
resurre
schumann
schuy
prostitute
boz
boards
slit
slaves
##arez
##ignment
polar
attending
foster
finer
tease
text
planets
accus
accoun
accusing
thanksgiving
prejud
tennes
##etts
situations
differences
barker
barracks
endless
pickin
metropol
restore
restless
prices
darned
evolved
millie
skipped
skye
fighters
##otto
passeng
signals
cola
colomb
##ivable
beha
infl
##iera
indicates
humble
blooded
dela
hunger
hunters
steed
geoff
starve
starks
##insk
firemen
##ensity
depri
discount
sexually
messenger
##ucing
ridin
regula
windham
artoo
touchy
louder
rafe
midget
experiments
gladly
transpor
completed
added
specialty
rufus
##ervo
squir
accidents
##coon
dresses
supervisor
purity
publishing
publisher
positions
sunrise
values
ordin
reaching
umb
irs
tougher
layin
turf
denying
sandra
torment
catal
located
locals
cardiac
rises
spacecraft
bottles
vanity
maine
mainland
hallway
saddle
carlotta
geek
verona
posters
accountant
witnessed
amazed
furious
equals
particles
delivering
angelo
quarantine
heroic
masks
physician
idiotic
approval
definition
loading
difficulty
pushy
observe
talby
civilians
panel
conditioning
arrives
organize
harmony
authorized
duh
performing
archer
keyser
subjects
flee
angie
rosen
combined
requests
hawkins
ethics
gallery
accessory
whisky
positively
malloy
battlefield
appointed
representing
representation
representative
included
roderick
vallens
pumpkin
dishon
##uzzy
terrorism
trading
hypnot
uniforms
expertise
wendell
jonathan
reno
rennie
tanker
wesley
products
panther
optim
1000
scrap
recovery
cooperation
oscar
explosives
conducted
katrina
microw
experiencing
ignorance
misunderstand
farther
scenes
mechanical
declared
independence
fortunately
commercials
sinking
licked
industrial
bulj
cuervo
platform
unpredict
dillon
unlikely
insec
georgia
vegetable
frequency
hutton
assembly
joanne
instruments
nasal
##donald
suspicions
rusty
inherit
observation
trauma
inspired
rmph
interference
electronic
colleagues
havana
narcissus
dowd
bronx
yonder
immortal
utterly
dreadful
implying
specifically
volunteered
mourning
stensland
superhero
cedar
##folk
twentieth
amendment
ambitious
scooby
disagree
barrenger
broker
comparison
refresh
panicked
massachus
fiancé
pneumonia
kronos
olsen
whatiya
hairdress
stadium
ilsa
beethoven
weasel
lefferts
cohaagen
crabtree
schuyler
tennessee
passengers
47
4th
85
ale
aub
bot
bim
bind
bib
bates
bij
clemen
cbs
dors
dwell
eater
epid
fuzzy
gil
gem
gide
hirsch
ive
jets
jumbo
kre
kore
kitt
lena
munch
nup
nipp
riz
ramp
rasc
sque
sissy
tux
vest
vain
votes
wl
wan
wilt
wiring
zip
##aac
##ski
##rations
##riter
##rari
##gans
##nge
##nels
##ii
##iate
##zi
##tes
##top
##hal
##fty
##fare
##you
##mb
##uge
##occ
##cat
##cuff
##pit
##wash
##weed
##bin
##ban
##bok
##bility
##10
##eres
##inck
##inished
##atin
##edith
##owa
##otine
##itals
##asm
heine
heming
##ereo
reib
rebel
hail
hacker
##levant
##idote
##idency
isaac
golly
shade
shorter
##sell
##ala
forens
##ims
stoo
stif
stashed
stella
stereo
lia
##verick
##chess
##aman
##allel
##lyss
neb
nels
sollo
abbe
outpost
##inks
gotcha
##oper
atom
debi
##ilation
everett
sayer
##usinsk
mans
pla
plank
plato
##igod
##iggins
ohh
##ifty
##ifully
gump
arlo
como
comed
##endar
willet
backpack
spine
spies
sperm
spontane
offs
mayfl
caring
carries
troop
##apo
claw
download
moreover
blades
betting
mule
marco
marrow
cox
scooter
gras
grusinsk
newcom
imbe
plead
##pless
emm
lasts
throne
elo
##uda
crock
##izations
smy
smashing
maverick
hock
hoax
perry
courses
flunk
flaw
flipped
listenin
suppress
handcuff
startin
phyll
hearst
traject
traced
interpol
intercour
reserve
throughout
param
insulting
##orrh
appe
appleton
context
warner
##roid
babbling
gland
glue
reader
teasing
tequila
harper
harlin
harrison
mornings
deser
paw
barbec
pickup
dolls
eyel
hotter
apoll
apiece
forgets
promising
##iba
reliant
skating
honour
bedtime
awright
##gina
bully
simulation
confuse
confined
hearted
##iva
behold
info
delmar
madness
##lands
corb
corny
stares
incap
##ensen
##ensed
discl
freely
admired
admitting
salon
robbers
##sylv
defending
grandchild
shipment
artific
redne
sample
subc
hanged
lounge
native
raft
musk
ordering
midge
greed
classroom
banking
absor
losses
cooler
nickname
protocol
meredith
accidentally
caen
caffe
maximum
laughin
publish
##ergast
floors
posse
sunk
##bted
majority
pressed
##bris
misd
honorable
feast
##aldi
creates
##maid
packs
brien
deepest
eyeball
norbert
footstep
appreh
armored
risking
mainly
halloran
relaxed
campbell
boarding
verse
verbal
allowing
cease
disappears
tasty
required
addressed
gardner
marriages
antidote
suffoc
sensible
loads
creation
recognition
obsess
mcg
mcint
##burgers
tricky
shari
ruben
portal
towers
juan
theres
buttle
melvin
arriving
detailed
organism
italians
terrifying
issued
concerning
duval
massage
masseria
technique
embarrassment
generation
precinct
cousins
hatred
bananas
##ophone
anglo
complaint
requesting
forehead
employment
tourists
severed
relevant
shrimp
repeated
gardener
execution
funding
servants
references
albania
albanian
amongst
activate
miracles
persist
shifts
terrorist
negotiation
associated
cancell
partnership
compete
principles
gaining
priests
currently
barnhardt
demands
rigged
reservations
mattress
shaving
applied
mummy
mumford
warden
chewing
critical
cadet
ummm
affected
qualities
explosive
micro
dewitt
linked
teenage
vito
wrecked
assassin
humiliate
mysteries
warriors
ironic
oakland
mechanic
revolutionary
sympathetic
gestapo
tribune
bolt
baldwin
2000
cheeks
satellites
confidentiality
springs
flowing
instantly
sparrow
tactical
##lowe
essential
molecules
georgie
memorial
receipts
battles
mandrake
pupils
##writing
bundle
gruner
tolerate
rejected
explorer
measures
wrestling
synth
exhibition
parasites
pennies
pennsylv
pipes
plumbing
annoying
sssh
commodus
involvement
democratic
sustain
historical
quadrant
skiing
wacko
prettier
pendergast
columbia
irrelevant
romulan
accompany
boule
##thorne
refrigerator
acknowledge
jasper
otho
horseshit
corky
aliens
chromium
irrespons
counterfeit
microsc
incompet
brynner
shinzon
insignificant
impatient
czar
sooze
prototype
typewriter
rekall
enrique
microwave
buljanoff
hairdresser
bijou
clemenza
gideon
rizzo
reiben
sollozzo
grusinskaya
phyllis
trajectory
intercourse
apollo
footsteps
pennsylvania
irresponsible
33
55
911
au
aer
alyss
bont
bial
berg
bode
bitten
cot
cic
cine
cors
coop
dak
dried
dair
damp
dances
fet
fitted
gle
gust
gina
hoop
jin
jude
ker
kle
kur
kitten
mend
motto
nite
nude
nba
oy
pim
pans
render
ratched
sip
ti
tart
tau
tipped
tucker
ud
vet
vas
vap
viz
vald
vander
wisc
yank
##rum
##rous
##rative
##rants
##robe
##gant
##gio
##nob
##nity
##zini
##hm
##hor
##houses
##lain
##uett
##dn
##did
##dling
##cest
##cup
##pace
##psy
##wer
##will
##water
##wyn
##bath
##bott
##xl
##ata
##atu
thesis
##anium
whitt
whipped
wheres
##enson
##esus
anat
##aro
##isin
##ision
##etz
##etric
##itas
##itter
##itations
##omin
##asions
inev
##utz
heir
heath
beep
mead
dose
isab
shab
stun
stern
stumbled
liza
##verty
knowin
##chm
##adena
myra
nods
##amo
##amoto
##anton
##antly
##entric
canary
##allows
sole
outstanding
##oda
aspect
chast
chunk
chilton
pry
##opy
##opher
##icon
##icable
##icial
##estyle
worley
##unting
herman
alamo
##inder
##ilizer
lookout
saves
##istically
##uckle
seas
seiz
seasons
##osity
guer
arra
arnie
arlyn
##aborate
backing
spic
spike
conor
conver
convey
lett
##umble
brat
bred
##ousing
trop
##apse
cluett
lease
leons
workshop
overs
overp
overre
overtime
peop
aft
quart
quint
drugged
gondor
blo
blur
blend
marv
mario
mariet
marijuana
bugger
coats
scattered
##issa
##issom
hugo
undo
grove
grissom
rooney
newly
joh
giron
remot
##placed
##anging
poe
poke
poverty
elaborate
criss
keeper
swip
switzer
smiles
shitless
hike
lothar
monument
assed
assurance
##cian
handic
startled
runner
secured
disse
disney
disorder
dischar
elsewhere
##ateral
##shaw
sling
slot
slug
harding
apprent
warped
polo
attach
##onsin
financing
paycheck
tril
prev
preced
desires
sitter
surfer
barrier
barrels
babys
preserve
mets
restored
arena
beautifully
untouch
prominent
secondary
lawrence
relay
skunk
youngest
grabs
awww
policemen
##otte
airlock
aircraft
significant
##nov
trusts
infr
infilt
doorway
milton
consent
delusion
shoots
starters
expects
deputies
sidewalk
benedict
freezer
retail
forged
snot
snatch
snitch
collapse
##ucci
rides
burial
calendar
patsy
grandpar
windsh
artists
curly
winch
conclus
livingston
beatin
raven
raving
propag
##umbling
extent
extinct
transpl
destination
dickhead
mistress
##awk
ruins
felony
nearby
informant
squirt
explaining
paste
caf
dresser
supermark
michelle
kissinger
coverage
##zzzz
judging
##heast
protective
drugstore
casan
casper
treason
##brush
smartest
valid
shortage
hopkins
drunken
boatwright
neglect
armitage
devast
radioactive
192
bombed
bleek
circuits
churchill
verge
gerry
limp
shops
lotsa
healing
healed
correction
karla
appeared
colorful
electri
princeton
masterpiece
##aius
arguments
obser
prayed
surviving
blocking
sheriffs
beaches
admirer
vacant
taping
exposure
portion
portland
screamed
piggy
collecting
sarc
reminded
grif
##roph
meaningless
cocky
reprod
##ega
cheaper
duchess
archd
archie
lasher
luca
stockings
crawled
precogs
videot
claiming
banner
banished
ratings
rambo
ramona
ashes
cyber
cyrus
rosato
domini
employer
ethel
adams
goddamit
shrub
congratulate
approached
celebrating
taller
talley
chops
indiana
fundament
tunnels
cartman
cartoon
inspection
referred
restaurants
punched
lapd
lednov
activated
strangest
fiji
vari
unfinished
briefly
##offs
wolfi
renew
acquainted
fascist
experimental
implant
currency
ferrari
universal
negotiating
pornography
attempted
hobbs
hobbes
despair
astron
pouring
wardrobe
scrape
holidays
applejack
pitcher
terminate
iii
cheerle
membership
lacking
prosper
flattering
punks
teenagers
vitamin
##ebra
troubled
relieve
producing
gutter
whistler
replacement
becky
savage
convenience
kilomet
pitiful
sacrificed
lynn
mechanism
spinal
tribun
northeast
championship
iraqi
bolsh
tammy
waddaya
premature
burglar
vickie
##ecou
tranqu
bushes
philosophical
resignation
volunteer
tactics
increased
350
pasadena
established
athos
muddy
gillis
imperial
recruited
recruiting
khrus
tatum
grammy
controlling
consciousness
favourite
anesthetic
intimidate
tempted
republican
swedish
slimy
signing
praetor
substance
economic
fisherman
jeremia
reinforce
crusher
nicholas
selena
bubber
bubble
retarded
riddick
turkish
colleague
wilderness
democrats
chronicle
cosmic
sutphin
caution
korea
krauts
saxophone
arroway
override
sniffing
curtains
purchase
meltdown
thoroughly
demonstration
alaska
hughes
distinctly
cockroaches
nashville
blacksmith
travelling
drexl
exorcism
insomnia
immigration
festival
edmunds
innocence
fragile
vincennes
scholarship
enthusi
authent
carolyn
adrenaline
conservative
outdoors
dwarf
eccentric
unpredictable
massachusetts
hemingway
imbecile
smythe
eyelash
caffeine
boulevard
alyssa
bontecou
bialy
dakota
taupin
viznick
wisconsin
isabella
gondorff
marietta
switzerland
grandparents
conclusions
kilometers
khruschev
jeremiah
36
69
600
78
aqu
bos
bers
bix
cd
cel
cair
dual
dah
dys
gat
gand
hath
hare
hides
higgins
ist
iowa
kee
kop
lent
lain
lass
lens
mice
mph
muss
moose
moses
nune
nsa
oly
ober
oona
oregon
pest
pame
pint
pins
rim
rally
riv
rye
rival
siber
tink
vile
wart
witty
xxx
yog
zoe
##eur
##ais
##sucker
##rom
##rimin
##good
##zie
##try
##tub
##hound
##lson
##lets
##lift
##letic
##liest
##mun
##most
##uar
##uild
##dles
##drop
##oided
##pool
##worm
##bc
##bis
##buck
##buster
##jan
##jamas
##xious
thorn
thail
##erone
##inum
##inction
##atr
##atore
##atisf
##aning
##anne
##anche
tol
##ingu
anten
anarch
ancest
##owl
##aria
##eta
##iti
heap
reign
reph
reef
whatt
beverage
bemb
haunting
docks
##leen
##idt
##storm
##stream
##struct
shatter
shades
shorty
forcing
stut
stash
stump
libb
notified
noisy
nek
alla
allies
chaz
sued
##ando
##ieval
##rag
##raine
##racy
deploy
alger
alimony
sap
sakes
ort
orb
lov
##igur
##igning
##istan
timer
whereabouts
##ulu
##ulating
##iffe
exotic
##oline
##olete
##astics
willya
spa
spitz
conner
lethal
##umper
cargo
carmen
carrier
ammun
tresp
trinity
ench
needy
overcome
peking
unarmed
moe
moh
bled
blamed
blaze
##berries
mare
marble
marines
intest
##agan
##agious
scru
scores
scouts
##thr
hubley
daytime
underp
##ishment
thoughtful
groo
grind
newsw
##ipher
##wny
mustard
##angs
emph
empress
##adys
leaks
##adek
elias
##uddy
crude
probability
couer
courier
sweeney
hoot
greatness
lottery
acme
flick
flare
floyd
assets
handing
handful
handwriting
playboy
##orda
##ilda
phen
disarm
deadline
mothersh
##eya
##shell
laf
stray
interv
camel
moms
insert
insists
insanity
boast
slash
slower
slots
slipping
slaver
charter
recorder
contagious
diver
warfare
##ormal
babes
glove
foll
finishing
teas
accomm
payday
payments
terrain
compulsive
inviting
invasion
invitations
menace
##avius
stuffy
paley
barf
barks
barrett
barzini
##ashi
holdin
gibar
wonderin
presidency
meter
easiest
christs
christie
standin
apes
figuring
promote
evident
millenn
obtain
fightin
bullsh
worryin
goddess
confessed
shutting
airlines
trusting
infirm
lighthouse
dreamer
indig
indef
indicted
sybok
humperd
consist
brakes
bracken
delusions
reasonably
hunh
hunted
madmart
starved
##neider
incor
incom
##ioces
truths
lieb
strapped
snort
colleen
robbing
elegant
caliber
patio
regrett
artistic
artillery
peterson
husbands
sweetest
painter
drain
redhead
senseless
magruder
subt
presidential
raises
richie
richards
belg
greer
worthwhile
dearest
extortion
distingu
horace
refund
reflex
refusing
ballroom
testified
transform
medio
medieval
banker
erase
ergo
surprising
rupt
squeez
merced
teaches
freight
flyer
topic
##oca
pleases
##ounced
judas
honesty
##heim
treats
caswell
misplaced
courts
davidson
connor
involving
##ificance
respects
commands
strongly
slowing
junction
damon
norfolk
shermin
##lov
communists
##boards
pisses
woodward
bombing
screwy
stationed
hmmmm
fredo
postp
buncha
directing
homicidal
##cuted
macle
tasted
suckers
apologizing
esther
avoided
equality
particip
cowgir
##anners
dumbest
quarrel
suggests
suffers
sensational
crem
observed
ghetto
rainy
pinch
pinta
smokin
guarded
guardian
exposition
politicians
dumps
towels
panes
##itorial
juarez
butts
collected
grie
##paper
duane
bella
mixer
simpson
marshm
roberts
introduction
virginity
ramelle
gangs
ignored
ashore
switching
##ilsen
degen
wilkes
tourist
ethical
austria
moods
developing
britain
bayon
mailed
kross
114
nicolet
nicotine
skywire
##icycle
encl
butterfly
includes
bernard
albany
napkins
pumps
woodsboro
rheya
jessie
cathed
lifestyle
elevated
stephens
corporal
sedated
competitive
acquired
regrets
gateway
##club
ferrie
joyce
hayes
puppies
nursing
nursery
stamped
phillips
commerce
paintings
novels
shelby
lobster
caddy
kimber
automatically
versus
ministers
convincing
recommendation
pistols
crucial
links
contained
rags
virtually
humiliation
humiliating
##ulsion
clowns
trembling
ignoring
minority
hesitate
mckin
##lihood
crooks
shotguns
adjustment
ultim
suzette
surgical
salvation
##xxx
blessing
swallowed
analyst
analyzed
luis
##walker
hitchh
pooh
establishment
omel
nellie
athletic
##arnation
khan
battal
hemorrh
stalling
schmidt
lengths
reveal
revealed
altitude
leaning
inherited
maniacs
obstetric
stalker
exhibit
roper
inspire
torpedoes
prospects
tramell
intellectual
mimi
conquest
contribution
corruption
announcement
diplomat
inquiry
permitted
masturb
sleeper
hartman
scrambled
stranded
dialogue
biscuits
fossil
gauge
coconuts
remarried
resources
calculated
spectacular
swayzak
outrageous
protein
spanky
overheard
unemployed
drifting
titanic
fiancee
lodge
condemned
superstition
precautions
fugitive
veteran
loosen
wagner
intrigu
woah
prelimin
restricted
penalty
shuffleboard
crocod
minimal
clementine
sylvia
discouraged
duplicate
substantial
obey
ravell
shirley
nexus
abstract
monstrous
accounting
umbrell
wladek
##occup
stifler
nebula
corbett
incapable
subconscious
dairy
inevitable
lettuce
peoples
remotely
windshield
casanova
archdioces
tribunal
bialystock
cairo
gandhi
kopals
nunez
olymp
pamela
xxxxxx
thailand
rephrase
bembry
ammunition
scruples
mothershead
accommod
gibarian
millennium
humperdinck
mercedes
65
63
87
bm
bry
bake
bak
bicycle
cinc
cmon
dand
dul
dab
dice
dile
dott
duel
flem
fern
ga
gurn
gals
gaff
hin
hed
hilar
ií
kw
ketch
kessler
laughter
lark
lounds
lining
mit
mop
mma
mirth
morde
nause
nym
oe
ola
oops
oasis
pion
pix
pino
poop
rut
rus
rapp
ruled
sven
sought
ssh
samp
tying
tijuana
vot
vast
vine
vene
vatic
vista
wri
wool
wits
wench
zion
zammit
##eenth
##eanor
##ae
##sberg
##rid
##rater
##rings
##rime
##gra
##gil
##nea
##nard
##zs
##zas
##zetti
##kar
##hen
##holes
##lace
##flies
##yers
##yamoto
##mad
##mind
##mons
##upp
##ucc
##ointing
##cur
##cap
##cula
##wa
##wl
##wanda
##vale
##bre
##but
##brew
youd
##eroph
##inn
##inin
##inos
##innat
##oni
##onent
torah
whips
whites
##orus
##owitz
##eting
##itories
##omi
##omen
##omber
##asa
##asers
input
##rep
##utions
heater
hebrew
ree
reich
reinc
beet
begg
weary
meg
haired
halo
##lee
##leg
##ghy
onions
shee
##sexual
fores
formed
ster
sten
stack
notices
##amatter
##anth
##illion
##ooping
areas
sooth
abbott
alle
allig
##inkle
##rift
##rief
shelf
chand
suicidal
##oped
##opus
upbr
anyplace
##icia
##ieu
vein
velv
##rault
decks
deception
debris
##unity
frames
herd
seeks
alarms
##inda
manzetti
oral
orgas
oranges
organs
##geois
plaster
plumber
timmy
seamus
selection
gund
exits
##olia
arist
arctic
##abilities
##ounding
backward
##obey
brow
brid
brett
brung
carved
carav
carlo
##ousine
amity
amused
trashed
agitated
clitor
leash
happiest
overt
overboard
overload
peasant
drisco
##empting
ungr
unnatural
bliss
blaz
blaine
betcha
##berman
##bergs
marse
intel
bubb
coch
##agara
##aggio
undead
wrists
soran
grill
grange
roston
newt
jock
##actory
believer
mustache
##iche
putt
remorse
poking
lasted
leaf
elbows
elbow
crm
crops
ads
adon
adore
smiled
maids
minors
mineral
homecoming
uhhh
perse
perrault
doesnt
monk
flour
flock
faerie
actin
##ogged
hearin
disobey
deadbeat
tractor
cracks
##iously
##shi
doneghy
reset
reserved
proving
parach
##acs
yale
charenton
recl
hardcore
##angeli
sonora
chevy
functions
fungus
##phins
glance
glitch
attended
attempting
foc
##mma
##ggers
harms
triv
tripl
trifle
ahold
dealin
preoccup
desec
drivers
farren
senators
barge
barking
cutest
metro
pointless
bookie
unto
##ibles
billions
##peed
mille
skim
skate
skank
##ceptive
grape
gravy
genev
obno
await
questionna
earrings
##aha
biting
colet
infat
##ieri
indict
induce
humility
consuel
bloodshed
hunk
hunner
hungar
madonna
steer
geese
starboard
##cco
blackjack
dino
deter
inclined
disco
waterfront
bodygu
snuck
collateral
calf
regist
esp
sweeter
dracula
reduce
reduced
filter
magda
subd
uncut
racial
musket
richer
annih
orderly
greene
clearing
extrater
refuge
bitching
testifying
glades
transition
transvest
bankrupt
err
ern
erotic
catcher
cooling
squire
fastest
hospitals
coffins
popped
imagining
accidental
condom
pasta
wallpaper
privately
hospitality
repairs
superstit
superintend
##ocated
purg
doucet
oughtta
##ounce
blowin
macho
rays
jefferies
##oula
##bruary
considerate
courtney
invested
investors
valve
spends
february
demo
demille
siddown
##ifications
roadbl
illust
illusions
striking
strongest
michaels
bastaldi
iranoff
toughest
advent
motives
footprints
layton
jumps
jumpy
turtle
bathtub
sandman
crosses
##cribe
weirdo
##loaf
elle
ella
ellsberg
catwoman
lowest
woodly
dangerously
feared
silo
bleach
relaxing
sadness
occasions
roma
vermont
temp
camper
limousine
hyper
connects
homo
continuing
investigations
investigators
hideous
preparation
##keye
kara
karras
louisa
programming
gasket
gasoline
argent
drawings
##uthorized
necklace
datab
clarify
territorial
mcp
mcgr
##burst
dependable
credibility
taped
dumping
sleaz
feeds
views
exceed
excels
bathing
juven
mexicans
notebook
fingered
grift
meaningful
climate
climber
climax
janitor
supporting
langley
balbo
balanced
massac
belle
belleroph
agrees
cooch
generate
conversations
##ennial
##aminated
software
warmer
precrime
devils
weaker
rambling
uranium
gangster
ashley
rosaline
sights
jealousy
breaths
females
statues
apparent
101
development
remaining
repeating
gaye
gayle
immune
mobil
nicest
skywalker
villa
plainly
meatloaf
telephoned
mentality
blanks
otto
thursdays
oceans
chained
vulgar
rhonda
injust
injuries
dusty
falco
lifting
instructed
improved
canceled
debrief
facilities
gained
lesions
wessex
officials
boundaries
negotiations
sophia
demanding
rackets
hudsucker
bouncing
flashlight
spooked
chambers
literary
beams
monkeybone
terminated
tags
cheerful
responding
##blance
##uthers
conceal
conceive
launched
litter
tubes
assassins
reconstruct
fascinated
rotting
divided
bourgeois
niagara
racing
racist
raccoon
scenery
deposits
lynch
distracted
distraction
##esthetic
semi
semester
sewing
salvatore
sympathize
bumped
chuckie
norton
alternate
interface
mamma
monitoring
premiere
cocktails
administer
burglars
delayed
casualties
bidding
pollux
appealing
dillinger
chimney
subscription
functioning
exceptional
frequent
compromised
ditched
unauthorized
butchered
exhaust
restraints
restraining
temptation
prosecution
environmental
skept
republicans
dalai
exaggerating
obstruct
certificates
economy
jellyfish
outlaw
parasite
globe
elephants
merciful
parrish
miyamoto
tackle
threads
conquer
succeeded
sustained
shaped
brunette
smuggling
chronic
tortured
axe
gymn
klute
kalen
sutton
nostril
toothpick
toothpaste
shaman
shreds
additional
merchant
liddy
arkansas
cocoa
ownership
charleston
charlotte
petersburg
fossils
ankle
ankles
##oppy
quantum
coconut
resource
encouraged
rhyme
inconvenient
inconvenience
irene
irena
##ukk
bruises
grenade
sanctuary
efficiency
kobay
##fighter
##initely
supplied
housewives
mathematics
pyram
eliminate
tomatoes
feminine
anesthesiology
gwen
scalp
funniest
motorcycle
derek
hinkley
zombie
screening
embezz
hypocr
algout
rapidly
vengeance
tampering
lingk
lundega
overseas
intuition
liaison
grasp
barbecue
redneck
cancelled
vapor
overreact
infrared
devastated
shrubbery
bolshev
berserk
lainey
antenna
ancestors
whattaya
libbets
slavery
indefinitely
madmartigan
cathedral
kimberly
preliminary
umbrella
kopalski
bmw
dilemma
gurney
hilarious
nymph
oeuv
sampson
vatican
zammito
##innati
reincarnation
upbringing
velvet
orgasm
caravaggio
clitoris
driscoll
ungrateful
geneva
obnoxious
bodyguards
extraterrest
transvestite
superstitious
superintendent
lundegaard
46
64
72
73
97
900
apr
aux
bery
biff
baw
cet
cain
cact
cries
dc
dag
dade
dunk
ewe
fon
fen
fraid
flex
fangs
gel
gail
hips
ig
ion
icy
jell
ka
ky
kap
kla
kaf
lace
lure
muck
mumbo
nim
nad
ov
oun
pi
pm
pom
pall
ply
pate
pause
pies
pta
pank
ponies
ri
rol
rated
rates
rattle
rookie
siz
sny
sier
tus
vee
vind
vend
vase
xk
xen
yv
yoda
zen
zimmer
##eon
##aul
##sen
##gom
##gled
##nier
##iologist
##zuel
##zburg
##kill
##tz
##tic
##tles
##tieth
##track
##holl
##lad
##lich
##lav
##lical
##food
##fair
##moth
##mary
##muda
##uji
##py
##wind
##wide
##word
##weg
##vich
##bul
##bound
##bank
##bitch
##bons
##bury
##bugs
##15
##17
thai
thugs
##oubted
##inople
##ati
##atical
##onimo
##anches
toll
##lle
##llll
##llium
##orld
##enne
##edo
itch
##arming
##isons
##eters
##itel
##itating
##itational
##asher
##asma
android
hee
##erella
reek
rewr
whatsa
bees
beacon
meurice
meyers
hacks
##leigh
##idian
##gher
##ldom
shiny
##kees
fors
forming
knot
stain
static
stored
lig
lib
##chn
##chai
nooo
nood
noooo
nobility
##amous
##amination
##entennial
cans
##urst
alloy
wantin
##rive
##ricks
chis
chau
hereby
sug
sung
sushi
pron
prest
prank
prague
upd
athe
anya
##ieg
##ppin
##ppers
defect
fret
frock
sag
sau
manic
manson
manpower
lovin
looting
plum
plag
plasma
goodman
couldnt
guided
hisself
exh
exley
##oler
aroun
##astas
somers
##endon
##ablo
##obs
##obar
##obie
##earing
spur
spac
spunk
spilled
spilling
brom
brink
twink
mayonna
maynard
mayfair
carrie
neverth
nevermind
clum
clap
caller
##tyard
peer
peps
quaint
moi
moist
byp
muham
killings
marc
marce
margin
coil
coca
##agl
scour
scuse
scuff
scobie
##issance
undoubted
dayton
underway
sordid
grim
gramp
nightclub
rocco
wah
wage
imitate
afterward
putz
emin
poets
##asser
elsa
olds
##udges
cran
crad
crate
crows
couples
swift
hoag
shitload
realise
realizes
greatly
hipp
peril
perverted
##urned
monop
courtyard
fled
flam
flint
missy
asset
supposing
handbag
phaser
runaway
##eph
disbar
dispens
disregard
##quin
##quent
##quate
stub
trains
traces
crab
showers
##mani
housekeeper
morals
morlock
serp
##shots
strat
resid
resolve
proxim
insides
pretended
boll
boating
bogey
##acles
slid
slugg
slugs
slippers
##orro
charms
charging
recoll
cheval
##phem
gladys
##onson
harp
founded
inval
##ettle
##lesley
farce
farrag
pappy
bark
barrack
cuttin
bringin
##ultane
##ancies
edna
editors
openly
fifties
thirst
eyew
excal
halfdan
diem
gunshot
darcy
darlene
##aires
reluct
hitter
grable
genes
obed
bulls
simultane
jez
password
shuts
airborne
signatures
significance
colson
infinite
consol
delac
delaney
shooter
stevie
##ussion
starck
stargher
##nec
##neil
powered
##oko
retards
admissions
salieri
straps
snack
snip
robins
##uces
riders
ridden
fulla
grandson
##ippy
petition
petals
array
filing
##liner
majors
subl
substitute
suburb
hangs
uncon
ladyship
proph
statements
muscles
classical
extensive
extrad
profound
ballplay
visits
radius
erased
adds
addiction
addicted
keitel
foolin
owww
psyched
shallow
squash
markers
merit
imagin
operative
walters
condoms
condesc
pastor
privy
repay
reply
##ocity
##gann
costumes
stepmother
##zzi
musicians
posit
judd
machinery
pressures
viruses
virgil
##brand
bases
valerie
fees
cryin
blueprints
involves
stricken
shorts
##going
##govern
irony
bribed
solved
solitary
slowed
garland
jung
cabins
cabbie
bustin
advances
ticking
lays
layer
layout
denial
denham
dennings
baths
sanderson
brainerd
witwer
cashier
deviant
ellis
formula
detected
commune
alexand
jameson
thirds
doubted
escobar
halle
screws
duncan
verify
allowance
germs
geronimo
posted
postcard
accounted
fishy
limping
limbs
splitting
macneil
presented
castles
estates
amazes
equally
prepost
frenchman
angela
louisiana
##ructor
failing
hooks
nosey
sailed
masc
bandages
draws
summers
holoca
obsolete
correctly
territories
mcgann
##bbing
julius
talia
raining
rainbow
gifted
difficulties
expend
expelled
lambs
rubbed
##ronic
rivers
intruding
males
##guer
hostility
griff
arrival
cracking
##minate
berth
bermuda
lynd
technician
randal
generator
generosity
pretends
projection
lindsey
puzz
raping
pools
pathological
##affrey
banned
ratan
gordo
angles
scottish
##eteria
suspend
furthermore
galbra
hawkeye
mccaffrey
freaky
freshman
describing
bondage
hamlet
tours
sporting
gallant
gaming
sinned
mailbox
pocketbook
assignments
toothbrush
execute
unharmed
scripts
emotionally
20th
quoting
cartel
##ermo
butterfield
ledge
magnum
poww
shifted
strangle
unlucky
rhode
variable
variety
concentrated
concentrating
cultural
mathilda
improv
##nnn
dumber
competent
gains
jonas
unsolved
acquis
implications
panty
webber
betrayal
montgom
foreigners
hayworth
mulv
attempts
rescued
ducks
##arajah
ooooo
pizzas
revenue
applic
naomi
chewed
spooks
fruitcake
educated
lipnik
candid
constantinople
cavity
reviews
produces
pedro
pounding
assassinated
franch
oaks
savior
divide
mantini
whatsamatter
occupy
challenged
##ooooo
drums
distracting
methodology
miguel
semple
aggrav
cloaked
declaration
nikki
hauling
prevented
biological
bolts
corey
premium
privileged
jenkins
pentangeli
peanuts
documentary
luci
casualty
democracy
cowardly
tutor
items
obligation
fluid
hatchet
octopus
beliefs
criticism
isolation
gravitational
genuinely
strawberry
23rd
tatiana
shouting
unreason
007
nominated
neurotic
plotting
prosecute
cinderella
egon
opium
republic
swede
soviets
tsch
praise
exaggerate
exploit
confirmation
weighs
gorilla
whitney
possessive
fiddle
mushroom
external
lemonade
parrot
consumed
landlady
inquiries
frustrated
accepting
regional
maharajah
merchand
improvement
staircase
abduct
carnival
miniature
crafts
corpses
elders
gazzo
remarks
simpler
cockroach
rhyth
correspondent
dartmouth
luxury
unemployment
anticipate
efficient
tumor
dolphins
enlighten
housewife
daryl
daryll
shangh
sculpture
slayers
tahoe
carriage
oblige
mayhem
hassle
resemblance
cavalry
overwhelming
bahamas
renault
sausage
enlisted
drooling
emptied
glamour
figgered
saddam
galaxy
challenging
category
bicentennial
dreyfuss
tidy
repressed
nevada
emerald
resurrection
metropolis
behaving
inheritance
biblical
gilbert
krem
kittridge
comedian
grandchildren
misdem
incompetent
bodega
cinema
fetish
jinx
##horvich
whittlesley
anatomy
apprentice
cafeteria
enthusiastic
yogurt
nekhorvich
teasdale
infirmary
postpone
macleod
archdiocese
cincinnati
hinkel
mirtha
mordechai
venezuel
beetle
beggars
##anthrop
focused
harmsway
preoccupied
questionnaire
consuelo
registration
juvenile
balboa
bellerophon
injustice
##ukkah
kobayashi
hypocrite
extraterrestrial
beryllium
klaatu
kafka
snyder
##holland
mayonnaise
nevertheless
pepsi
undoubtedly
disbarred
recollect
farragut
holocaust
galbraith
montgomery
54
57
79
7th
9th
az
aston
aches
batch
bord
bending
ci
cb
cone
cess
cuss
cages
crick
cement
dang
doth
dense
dimin
diction
ez
eee
elly
eaves
fitting
fences
gul
gap
gild
gower
gork
gaw
gaze
hir
hul
hens
huckle
ib
ick
jest
jup
jeth
jugg
jules
ki
kab
kint
kens
lh
lur
leel
lath
lured
lonel
luh
lanes
ming
moo
mos
mates
mute
moust
ness
nour
niet
nyl
ping
pater
pors
punt
pablo
rites
rushing
sz
sly
sized
tes
tad
tess
tul
tep
tents
tipping
tiring
uk
uc
vous
vert
void
wop
wain
wages
wann
wager
wishing
wolves
yoke
yarn
zur
zach
zaius
##eers
##roy
##gence
##near
##nne
##nuts
##iated
##ienced
##hol
##horn
##haven
##lic
##mie
##made
##mute
##maker
##mobile
##uity
##upt
##ujah
##dock
##dream
##driver
##cill
##cend
##cers
##crow
##pea
##pie
##pey
##wit
##vol
##bies
##bach
##jay
##jour
##jesus
##21
thx
##oux
youse
##aters
##onious
##anny
token
wham
whiff
whoops
anom
ansel
anastas
##eder
##owed
##arians
##isure
##isms
##eted
##etry
##itis
##omon
##ask
inoper
##aying
anderton
hep
heist
rect
rept
bebe
beamed
weiss
weaken
weeds
havent
doom
dove
dost
doomed
dobis
##idated
##sta
##sten
##stri
##stated
##ghead
onboard
##lda
gozer
shiv
shaken
shipped
shattered
##kell
##sea
##aler
forge
forum
donkey
knack
knicks
sta
stard
stear
stans
stated
stove
stages
stagger
lipp
liability
##chen
##chron
notch
##adda
noc
nov
noct
noel
noses
nobles
##anter
##entin
##entive
##eek
canv
canned
nept
nelson
soy
socially
soaked
abra
getty
allan
justify
shemp
chal
chant
chink
chey
chub
chlo
chipped
chipper
choos
chaser
chorus
howl
pruss
upright
upstate
thinker
##icides
##iciency
##raved
##rained
worthing
dement
deuce
decker
dejesus
##una
frat
##acked
seeya
##oreen
##ilate
managing
loot
loft
plut
plun
timers
##ulet
##ulum
sears
seldom
##ifix
##ifiable
hiss
exquis
arb
arbit
armani
compress
compton
##astly
willa
willard
meaner
##aka
##obia
##nais
##nace
spat
brent
broth
brides
brute
hadda
haddon
##ittance
twas
twig
tweak
##icker
##ickers
carc
carmine
##ouss
ames
amar
amish
amado
amigo
troy
truce
troph
trooper
agony
agenda
clive
cluster
clinton
callow
leisure
##oughs
enlar
##orted
##few
##feld
peg
pel
pep
pegged
quell
quentin
droid
drastic
##emore
##ements
##oya
unite
unident
unhe
unrel
blas
bloss
blames
blender
muh
mund
mugged
marzz
marcie
intoler
##elity
##elujah
buggy
coins
##agra
scur
scots
scroll
scales
scorp
wont
hub
hubert
daydream
underdog
wrench
joints
waal
waist
lifeform
siren
afterlife
plea
leaking
leaked
thrilling
elm
elit
elton
##udd
probable
advis
swings
swarth
swallows
partly
partially
hippie
perk
perkins
perception
placement
monro
flown
missoula
understandable
playwright
##ordi
phasers
##athon
disk
disallow
dislike
##quer
##iffer
travers
crappy
##manus
headin
lav
lacer
##proof
stressed
strader
strasser
prover
proce
parallel
insol
insub
slur
slag
slime
slipp
slides
sluts
sledge
recip
##ignant
contaminated
diap
diving
divisions
meetin
warne
warmed
warming
sonuv
cheque
cheesy
##roix
breeding
glum
businesses
readin
readout
livelihood
finnegan
cleans
##ggered
harri
harlem
triangle
pref
invade
menu
tenor
dripping
survey
schoolboy
pajamas
barbie
endure
endorse
holder
sounder
edwards
metall
rests
##lington
excl
decoy
booking
monthly
##eeth
hurtin
evolve
##ibu
##ibur
##ibble
copied
skies
skins
eighties
seth
awe
awaken
simulator
##azza
jeans
heartless
##erto
##ivate
trustworthy
infamous
##onto
dreamt
exploded
syna
consig
console
consume
consarn
considers
delic
delta
geography
geographic
geordi
instructor
sorted
firefly
fireworks
importantly
buyer
certainty
admittance
salmon
##ologically
rider
burying
burbage
burrit
sentry
sentences
eyesight
patty
deform
esper
arranging
curl
curfew
millionaires
singular
draggin
##apeut
redeem
filmm
filiba
sami
wearin
driveway
hangover
uncont
uncomm
builds
presidents
props
studs
reflection
visions
visited
gladiator
transf
meds
impound
smallest
smallville
laurel
trainer
seller
specialist
losin
felicia
favorites
darkest
nickie
marking
throwin
##cox
condo
flyin
flynne
superf
##oculars
disappointing
pleasures
penance
penfield
costa
fixes
floats
judges
baggage
palermo
rosemary
apartments
presses
mischief
valium
demise
##efur
growin
strangely
smelling
illum
striker
largest
birdson
mentioning
affl
boris
packard
packages
solomon
suitable
juneb
damages
norweg
##uffy
sherwood
sheronda
denby
bathe
sandefur
crossroad
armies
weirdest
cashed
arrests
communicating
daft
cardboard
##iliary
appreciated
silicon
vanilla
bleeds
violating
hallelujah
camps
sadly
sadie
occurs
lads
laddie
oppress
moderation
hyman
sanity
##cutio
macready
macaul
casting
##inois
furnace
settling
aviation
##annon
dumbass
louisville
fails
photon
royce
gaskell
masry
antib
bands
sensor
sensit
sensual
constable
washes
seafood
clara
clarendon
speculate
mcgovern
mcmanus
blockbuster
frightens
ghastly
missionary
examining
portable
sleaze
leeches
intrusion
juicy
malibu
therapeut
collector
melod
melted
gripe
cracker
crackpot
janine
supports
mmmmm
dancin
creeper
berries
matched
licensed
roughly
successfully
lasers
stocks
stanzi
paths
chickenshit
motherfucking
banister
banquet
ramos
##ophren
ignition
cyl
cyril
booby
lifts
domain
domination
venus
voltage
characteristics
kayleigh
mccall
##heads
borrowing
ryuji
rumour
severance
swords
gallon
releases
moody
fridays
sneakin
revol
storms
remained
corned
kris
punct
punishing
immense
immature
189
reactions
poisoning
poisonous
bums
chopping
throats
bedrooms
sexuality
funded
snappy
butterflies
bulletin
silverstone
blankets
ott
hillb
targets
stinky
lisbon
miraculous
pinkerton
shielding
illegally
mortals
peek
traded
falcon
cultures
fingert
denton
mathieu
impro
imprison
chateau
tuesdays
ronny
tails
tailor
debut
claymore
lectures
dumpl
amounts
railway
tablo
unsub
mileage
antiques
beauhar
implied
ferry
mackey
wyoming
sophom
twisting
stretched
paden
cheeseburgers
wintermute
bounced
grayson
applications
regardless
novelty
scraps
critics
kimmy
annex
automobile
cooperating
osgood
replacing
rancho
recommendations
pitching
pitched
qualify
pursued
psychiatrists
cruising
cruiser
blasted
##blers
concealed
joshua
picass
deduct
dedication
##weil
initial
clinical
passports
temporarily
whistles
hacking
hammond
savages
kinnear
nobleman
occupation
hanukkah
watson
##oooooooo
sewer
actresses
networks
niki
poems
fortunes
wadda
deemed
grasshop
ozone
razinin
##itarian
##strong
warsaw
alfredo
cocksuck
bogus
humpback
essence
beeper
gabrielle
yuppie
injected
neutron
vegetables
scams
imperfect
recruit
decorated
detonate
dugan
pupil
##omaniac
defeated
episodes
kurtzweil
egghead
skeleton
exploring
auditioning
telegrams
altar
sweden
munro
yankees
##putin
sequence
groceries
synchron
dictate
heavier
liverpool
traumat
skirts
faintest
gynec
whitman
stirred
blackmailing
mercury
gabriela
dubious
flooded
electronics
compensate
carrot
lazar
commodity
diplomatic
750
bruno
arrogance
translate
hysteria
perpetual
arab
fulfill
sankara
gulls
baptized
vibrations
penetration
hallucin
hallucinations
specimens
linen
stairwell
carniv
prettiest
demonstrate
aaah
aaaah
biscuit
ivan
rooft
aspirin
clicking
treasury
encouraging
accompan
initiative
binoculars
grenades
putterer
crucifix
advertising
drifter
townsend
departure
ecst
jaguar
rasp
rasputin
flavor
folded
excessive
evacuate
transmitted
impersonal
errands
verdict
hydrogen
continental
precaution
hendricks
telesc
stimul
crazier
disconnected
destructive
ooze
##hyd
thighs
wholesome
seminar
braslow
carriers
comprehend
obscene
cyclops
stabilize
asteroid
theoretically
chooses
cappucc
ruling
wuddya
inexper
convertible
enhanced
schizophren
graphic
inferior
earthquakes
unrealistic
souven
anaesthetic
geoffrey
deprived
ordinarily
catalog
optimistic
aubrey
dorsia
epidem
korean
nipples
tuxedo
emmett
handcuffs
artificial
suffocating
mcgill
microscopic
bergman
kurten
udall
aspects
chastity
seizure
quartet
marvosa
discharge
propaganda
supermarket
astronaut
reinforcements
authentic
algeria
underpants
incompl
liebkind
cowgirls
hitchhik
intriguing
stenographer
alleged
alligator
gunderson
marseilles
cochrane
hunnert
database
skeptical
resourceful
auxiliary
cactus
ounces
sierra
chisel
spacesh
clumsy
muhammad
grampa
monopoly
morlocks
bollocks
excalibur
simultaneously
delacroix
suburban
ballplayer
preposterous
powwow
unreasonable
rhythm
shanghai
misdemeanor
eavesdrop
gilded
gorkon
huckleberry
kensington
leeloo
wainwright
wannab
anastasia
dobisch
stearns
lippman
chloe
exquisite
haddonfield
unidentified
marzzone
monroe
disallowed
slippery
junebug
crossroads
macaulay
beauharnais
cappuccino
43
56
59
76
81
84
8th
ai
ave
ail
bach
bav
bash
bied
bows
baff
bomber
cp
ching
cull
cates
cens
cuc
cider
crib
ciera
dm
dj
dic
dus
dup
dye
delly
dazz
doreen
eu
ech
eel
elder
fou
ful
fey
fists
fury
fender
fainted
gav
gents
gender
holog
hittin
hilton
haste
housing
ire
jr
jorge
jorg
kook
kul
kos
kai
kung
kenn
kamins
kiki
ls
lan
latch
louse
lull
lash
lins
liner
lomp
mh
mb
mab
mose
nip
norr
nug
nintend
nilsen
og
ore
ome
pak
pact
pav
pont
poof
pester
pending
pomp
ration
rue
rents
rhin
roul
rik
races
sith
sart
sate
sans
sigh
ting
tine
tac
tai
titty
vat
vult
vial
voil
vivid
voted
voting
ww
wink
wuss
wimp
winton
yen
yikes
zh
zu
zer
zin
zow
zap
zebra
zorro
##aved
##sch
##sons
##rer
##rates
##rational
##rusted
##gi
##gado
##nut
##normal
##iour
##iences
##zia
##zens
##kis
##tore
##han
##hall
##hist
##fell
##fits
##flow
##yman
##yards
##mott
##mama
##uder
##dick
##cre
##call
##cine
##pil
##pired
##puss
##vere
##vation
##bus
##bos
##bab
##bear
##bbe
##jac
##22
thal
threes
##oure
youve
##inis
##inty
##inals
##onal
##onder
##onium
##onzo
toad
toont
##ingham
##lli
whim
whop
##oria
##orient
##eny
##enas
ante
itís
##arin
##etting
##etrack
##itness
##aska
inad
inau
inning
inez
inhib
inquire
##reed
##real
##reides
##recy
##uting
##ayed
##ayette
hex
heid
heating
reap
reese
reagan
rewind
whatnot
beery
beyn
beads
mellow
megan
mebbe
hap
hab
haze
dogg
dozens
##stak
##stead
ons
onna
goble
goals
goering
gosp
shm
shook
shush
shitting
##keby
##alysis
##ima
##imated
##imited
donor
donation
donuts
kneel
lionel
##chs
##chi
##chon
noted
noticing
wastin
waski
##advant
myr
nos
##ithm
##amine
##ented
##enteeth
##eee
##illo
##urf
##urai
##alled
##allister
##outing
necks
nebr
soak
socc
##ional
abilities
getaway
allie
outr
outwe
outcast
outburst
shepher
chu
chel
chile
chipp
chino
chlor
suez
prol
prair
prying
##opol
upgr
upriver
atreides
##icies
##icators
##icuddy
##andi
veil
##estro
depl
degr
deja
deleg
##uns
##unes
fren
frantic
herald
heresy
whyn
alot
alison
##ilian
##usal
##usive
##uscript
saig
mann
mank
manages
manray
manhood
managers
manuscript
lobe
loony
logging
usin
pliss
pliers
plastics
##igible
timid
goodies
semen
sections
##osse
##ifact
##ifred
guine
guides
exert
##olism
arbor
arlington
comics
comments
##vene
##venworth
comeback
backst
##aki
splin
spades
spears
talker
bris
brod
brake
twit
##icking
carib
amp
tron
trot
trent
trough
trub
truc
trumbo
clob
clips
leer
lever
leeds
leverage
envelop
enroll
needles
overst
overall
overly
overest
overth
overflow
peed
quid
quittin
drilling
##emont
unin
unle
unim
unner
unpar
moor
blister
bloke
blushing
marlowe
marathon
intruder
##elin
##elines
buick
cog
coz
cov
coal
cokes
scab
scagn
scanners
hudd
hullo
##ected
##ffle
evenings
##urek
grin
grunt
grotes
grudge
greta
nighting
nightfall
nightcap
rogue
roaming
newport
joad
jolly
helpmann
nothingness
longing
longfell
lifeline
##acher
rembrand
poetic
##dermott
leavenworth
##assed
##tail
elster
crest
crates
croup
cruz
crumble
probie
cougar
ade
adoles
adapt
adolph
swap
##pto
mait
maestro
##ossal
miniat
homeboy
hier
hijack
lotion
uhn
peru
perj
perch
perfor
##urnal
monaster
monitors
acute
fling
badges
faw
##into
handsh
careers
##ogast
##ogical
##ordination
##atha
secrecy
hearse
disorient
disadvant
wouldnt
##qual
mighta
traff
traitors
minding
morality
morbid
seraf
##eye
lacr
##pring
camelot
scha
schneider
momo
prostit
paralysis
insin
insens
tonic
bozo
worldwide
##acle
slop
charitable
recy
contem
contro
contamination
diab
warrants
commend
committing
sonar
##uba
cheery
cheats
funk
funky
##roc
sixpack
gloss
policies
seeming
finland
payoff
foundations
trials
composed
invoke
invaded
##avo
capone
tens
tenant
jacked
jackass
jackets
jackpot
stuffing
farming
pais
endings
cutter
shostak
wonderland
picket
presently
fifteenth
countess
countless
countdown
decipher
breakin
checkbook
darien
prompt
lawford
evasion
##ibal
billi
billing
relat
millaney
millimeter
skiff
skyn
hitman
specially
honors
numb
obi
questionable
##ugal
jeh
passive
##aho
##ahad
colour
##ivated
explicit
indication
indisc
syrup
delir
delbert
delhi
delgado
factors
dinners
incest
inciner
honeythorn
depinto
discred
watering
watered
watermel
benes
benson
##apper
buyin
##ups
salute
salzburg
forgery
sneeze
snooping
collapsed
##ucon
burgers
defended
regards
regulation
grandmama
artifact
touchdown
esk
petting
winners
suspens
singh
singles
alongside
legacy
conclusive
concussion
concannon
##ushova
filters
samurai
##soe
magnes
hangin
uncles
saturn
cleaners
midst
greenteeth
clearer
clearance
profanity
refill
refres
ballast
ballistics
straightening
visas
buckley
transp
transcript
transsexual
##owski
impot
impost
impulsive
##tenfuss
frontier
colds
##riced
keating
felon
centers
squeak
##rament
##ramatic
popping
typing
merk
merci
merrill
mercutio
wales
##coats
humanly
fairlane
caves
locking
repet
repell
reprie
repulsive
superiors
disappro
dougl
##fortune
##zza
##zzie
judged
treaties
stickin
casket
casinos
##bral
##brook
considerable
misfortune
smarts
burnfield
valued
clocks
feat
##efer
lords
illinois
stripe
stripped
stripper
lara
irrational
bricks
hopper
solitude
drunker
luncheon
garlic
practices
rockwell
eyeballs
boatman
publicly
##bedded
toronto
formality
catast
cataly
communic
lowe
lowry
cardiff
cardinals
camping
digg
digit
greenhouse
niner
fatig
rollo
belonging
prodig
produced
fishin
acceptable
directive
hydra
empath
sanitation
##cutt
macdonald
investigated
southwest
esteem
healy
suggs
settles
equation
wildlife
deliveries
##ueless
marries
sails
sailors
labs
antig
sensed
drawers
yellin
fitness
holmes
claremont
mcdonald
mcallister
mcdermott
blockade
talents
ghoul
admirable
vaccine
sharper
sharpen
pinot
pinback
pinched
franco
martinis
##fucka
fellowship
renting
looseleaf
slew
existing
exceeding
baton
batty
batting
panama
malt
malaria
hostess
collective
sarris
melissa
criminally
crackers
oddly
cocked
cockpit
objections
bala
bodily
bodhi
bellev
agreements
archive
archae
cooped
assistants
generated
niggas
tita
projections
puerto
scarf
flights
lucille
speeding
ugarte
emergencies
satisfying
olives
rams
urges
preference
angora
##etera
boobs
scarecrow
switches
galahad
volumes
hawthorne
mccay
provo
provides
freakin
attorneys
bonding
wilkins
wilshire
ethi
galley
gallons
gallows
salesmen
josé
sinatra
accessed
sneaked
fanucci
snowball
sociopath
diseases
punters
immoral
immunity
approaches
corrob
kirkeby
buffet
matin
pairs
mutilated
expressing
##gaard
appointments
mentor
logically
cartwright
witchcraft
chapin
chapel
chaperone
silverware
punching
behaviour
crowds
junkies
naples
pumped
funerals
floris
strangled
fiber
unlimited
rhym
injunction
safest
confirms
primer
spelling
surfing
eleventh
hypn
pillar
whorehouse
typically
rushed
120
##oxide
canceling
entertained
unsure
lesion
experimenting
circumstance
internship
epile
deckard
montoya
insults
influenced
scratching
scratched
foreigner
bangs
cherish
embrace
deceit
deceive
priorities
haydn
mulholland
diesel
advantages
paddle
wraps
reservoir
despicable
oooo
ooooh
pours
pizzer
liberal
flashes
inventory
disgusted
bailed
whacking
lobot
scrawny
kimball
dipshit
oskar
replicators
ribs
chinaman
qualifications
avenge
eti
ettore
tagged
librarian
predator
predicted
deacon
kuato
falsely
deranged
vitamins
conceived
ragged
virtucon
philosopher
dedicate
pedal
peddle
pacif
##namon
tassel
beasts
marching
buddha
temporal
gathered
tends
tendency
wickwire
hacked
surgeons
attendance
hesitation
sacrament
sacrifices
21st
cerebral
dyke
##liere
steaks
clifford
drumlin
scanning
scanner
palmdale
adjusting
adjusted
miggs
intentionally
bumps
nikes
nikko
nikolas
puffy
remarkably
patrizia
aiding
rudolf
wadn
academic
paradox
premier
privileges
chamberlain
jennie
rebell
platoon
platinum
spectrum
booty
bidder
##strom
sparks
sparrin
resigned
1967
hitched
wiser
deliberate
increasing
concerts
5000
nanny
coordinate
criticize
greeting
multi
nuwanda
athlet
georgina
vegetarian
consequence
imperative
dismant
syndicate
greece
greeks
shouted
gramm
tonsils
memorize
lonnie
nomak
unaware
sweeping
restraint
colonies
prosecutor
skelet
vicinity
mythology
manifested
helmuth
relatively
dalton
muncie
tsavo
measly
guinan
shoveling
exploitation
corpus
econom
wandered
##escu
penguins
severely
administrator
egyptian
gorman
molest
rearr
mocking
sketchy
sketches
mercen
vaughn
toxin
extermin
interfering
consumer
retrieve
bondsman
puppeteer
##ffeur
compensation
compensated
carrots
strategic
slammed
durden
ingenious
worships
frustration
inspiring
brewery
infantry
cursing
sincerely
arabs
fulfilled
fulfilling
lenin
lenore
vouched
inhab
swanney
expanding
baptist
kraut
guilder
amateurs
stubbins
penetrate
sleepless
immortality
neutralized
rituals
hindus
kelson
kelvin
##girl
weeping
polymer
boiler
diagnosis
harassment
metaphor
metaphors
indulge
leadership
purchases
tattooed
dismissed
achievement
elden
sodium
ensure
quantico
cramps
coupon
treasures
romulans
specifics
initiate
spectacle
navigation
##court
overheated
advertis
transmitter
brigade
dispatches
acknowled
cinnamon
tumble
evaluation
evaluate
consultant
transmissions
electrocuted
hypothetical
manufacture
cortex
yakushova
retainer
burgund
rehabil
penitentiary
rashid
tahiti
styles
demolition
motivation
negligent
negligence
mtv
diversion
calculate
contradiction
wudan
sultenfuss
worshipped
hoffy
tyrone
earthquake
bikini
cauld
lagoon
velocity
loathe
spacedock
clutch
scoundrel
scoundrels
accusation
accusations
transporter
transporters
insecure
bimbo
rasczak
spontaneous
mayflower
troopers
paramount
glands
obsessive
mcintosh
repeatedly
microch
cotter
##chmacher
tropical
overpriced
johana
swiped
disneyland
prevail
transplant
neglected
electrician
observer
variables
duality
dahl
dyslex
siberia
##iffel
groovy
newsweek
emphasis
phenomen
lafayette
reflexes
degenerate
bayonet
enclosed
mckinley
omelette
battalion
obstetrical
masturbation
bryant
bakery
dottie
fleming
ketchup
russell
bridges
parachute
trivial
triplette
infatuation
purgatory
argentina
exceeded
excelsior
pyramid
bolshevik
oeuvres
flexible
igor
forsaken
noodle
chauffeur
somerset
eminence
hoagie
chevalier
eyewitness
mascara
expendable
improvise
franchise
abducted
venezuela
cricket
dictionary
jupiter
jethro
lhasa
loneliness
mosqu
moustache
porsche
szpil
teschmacher
inoperative
neptune
abraham
cheyenne
choosing
worthington
arbogast
calloway
blasphem
proverb
prefers
synag
consigliere
uncommon
sensitivity
therapeutic
traumatized
telescope
mcgillicuddy
incomplete
spaceship
ireland
jorgensen
kulok
kaminski
lompoc
nintendo
omega
zowie
toontown
inaug
heidi
nebraska
soccer
outweigh
prairie
saigon
plissken
caribbean
scagnetti
grotesque
longfellow
rembrandt
miniatur
monastery
serafine
insensitive
shostakovich
skynet
suspension
magnesium
douglas
hydraul
bellevue
rhymes
szpilman
66
68
71
74
700
95
ald
aver
ary
aus
apt
aint
alder
bere
bau
bick
braid
bork
bens
bung
binary
baza
cc
cds
cotta
dome
dia
dorn
dames
dern
della
density
ether
eich
ester
ehh
ebby
fay
fives
fading
fumes
fowl
gator
geller
hh
hoth
hoof
hints
jp
jor
jee
jive
jib
jug
jello
jumper
jurek
kg
kam
kittle
kool
kamp
kaz
katherine
kettle
koko
litt
lother
lub
latt
lyle
lana
luv
lumber
mook
mish
mash
mio
merv
makers
nes
nast
nada
nifty
ora
pd
pess
pau
pough
pows
poul
porth
pots
pager
puls
rou
rall
ruck
rach
rav
rating
ringer
rache
rican
roust
sg
sill
tion
tic
tame
titt
tuts
tippi
vu
vort
voss
via
vox
vlad
wu
wong
wider
xan
yi
yay
yur
yllo
yanks
zed
zander
zimm
zalt
zulu
##aan
##aith
##aci
##azy
##acious
##rist
##gf
##gam
##gang
##gling
##gley
##groom
##gale
##net
##nna
##nation
##iak
##iates
##iago
##iques
##zio
##zai
##konn
##tical
##hl
##hot
##hart
##hof
##lac
##lett
##lier
##fi
##fir
##fun
##full
##fold
##furt
##mies
##ught
##dad
##dly
##dish
##oi
##oat
##cas
##ccept
##cular
##cases
##pan
##pay
##pic
##pike
##wun
##wig
##witt
##wick
##weal
##western
##wurst
##bust
##boo
##bish
##bble
##bah
##birth
##bilt
##bishop
##banks
##jor
##jee
##16
thump
thaw
youí
##erit
##eroy
##inform
##inburgh
##ono
##onents
##onne
##anim
##anza
##analy
toons
whoop
whining
whippin
##orf
##orin
##orhe
##orius
##enous
##esher
anus
anita
##arations
##isl
##itus
##itud
##itives
##ompress
##omination
##asive
##asco
inade
inquis
##utch
##ayin
##ayas
andr
andre
hein
hewitt
##ereign
mein
hag
hale
hailing
dole
doork
doss
dooms
##lector
##idable
##iddy
##stop
##sticks
onion
ish
isla
goo
shi
shes
shill
shri
shite
shud
shines
shaked
dong
stip
stint
stared
stained
lien
liars
liby
lili
notor
##ceivable
wast
noose
nosy
##irable
##ustomed
##amm
##amie
##among
##amish
withstand
cane
canoe
##urg
##alling
##outhing
sob
solem
abol
abide
abnormal
didja
allright
allah
alliance
##tered
outright
output
##odel
##rils
asc
asgaard
##heres
##ndown
chas
chir
chol
chills
chimp
chaste
choking
hows
howling
sums
sula
prud
primate
upl
upham
uphold
atone
##icism
##icrous
##andra
##ppas
##pple
##rapin
##estion
deanna
deird
frater
fritz
frogs
herm
hersh
alf
alias
alonzo
##usible
##arten
sauc
saks
sabb
manure
manfred
orton
orgy
##geon
lolly
logged
uss
platter
##iger
##igma
##istical
##ucking
##ulses
##ulnerable
seize
seals
seism
semit
seeds
ohhhh
##oslov
##ifting
exile
export
arent
arlet
artery
arithm
##atement
comical
##astically
##ende
##endrick
##abor
willy
backtrack
meanest
##aky
##akia
spud
spitting
spills
conj
conan
converted
talkie
brus
brouss
everytime
mayol
carat
##oused
trout
##apy
aging
agencies
agatha
cler
clam
clash
clover
clueless
leans
fucken
fuckhead
enfor
workout
##felt
overwork
overrated
overpower
pem
peas
quill
quits
unatt
moj
blues
##bering
marl
marm
marily
marcel
marguer
intra
intensity
bugged
coon
scatter
wonders
hugging
undet
##ffer
evenin
yearbook
##ishes
giveaway
grouch
gretch
grimes
rog
rok
rolex
##actic
longsh
imped
beforehand
sirens
pleaded
remov
poach
polly
poached
poked
##irez
throb
thrills
kindred
eli
elite
##udel
cram
crises
crashing
cranes
##izers
adap
parting
##ptuous
smir
smurf
boycott
mae
mao
maim
shits
minnea
realm
realization
realizing
realistically
hiking
perce
perrier
perverse
understatement
monte
monarch
flux
flashing
flask
facial
listens
handker
handbook
##oga
##ogy
##ogan
philly
phara
phoning
runt
runners
buss
busboy
disl
disability
trav
trapper
craps
crapper
crazed
motherhood
##mans
##mances
tomm
morally
morons
morrow
headline
##eyed
##sha
lacy
strut
strudel
interru
resolution
resulting
resounding
camels
prohib
parks
paramed
paraly
parlay
parais
parsons
insul
insured
inscription
leftovers
##acent
##acola
saws
sawyer
slate
slump
slush
slips
slinky
sloppy
weekly
recre
recite
##ignon
appra
diana
divert
dioxide
mattered
commiss
sonris
funboy
##plement
##rov
##rost
huron
turnpike
brean
sixteenth
glow
glau
glare
businessmen
watcha
watchman
lively
walkie
##mmy
telem
accents
accustomed
harmed
harlan
harcourt
harkonn
payne
terrace
tripped
tripping
ahem
composition
premed
invulnerable
##avier
capri
farley
pappas
barons
barric
barging
barrington
barbat
holden
holders
shoves
giul
giov
wonderfully
jesuits
pickle
preserved
edith
editing
edinburgh
metab
openers
sleepin
restroom
thirteenth
thirtieth
excused
pricks
prizes
standby
decline
decompress
hott
booker
bookkeeper
apache
breakthr
beauties
figur
untie
daring
darwin
evans
billings
relate
mills
skipping
skippy
skrapin
youngsters
eights
sethe
bedford
bedbugs
graf
graft
gracie
genre
numerous
obit
awa
frankfurt
simms
##azar
jezzie
confide
confisc
earp
earring
shutters
##ertation
##erties
colossal
##iviere
infinity
##retta
lighting
explodes
index
syl
syll
humph
humming
bloodbath
delt
shooters
corvis
steamed
geomet
geologists
stark
starvin
starring
starbuck
detach
detention
incur
incons
incoming
expectin
firehouse
depot
captains
discon
newsstand
##ouche
followers
lieu
powerless
##uctive
messin
saliva
salazar
strait
snif
robe
robot
sentenced
fuller
calib
defy
defence
deficiency
regen
registry
grande
grandad
winding
windthorne
murdering
espress
pets
arrows
curric
painless
wines
winters
winifred
legions
legisl
concorde
##lination
subvers
uncover
louella
raided
propri
properties
richter
midwest
##otechn
extended
distinction
refuel
refinery
refusal
balled
balloons
visible
buckle
transpar
transaction
impea
imposing
impulses
bankroll
trainee
destined
landy
##ricide
##ricular
erad
sellers
oww
entrap
nearer
centre
botherin
jerking
squaw
squares
darker
fastball
poppy
tyrell
tybal
markets
accidently
fremont
operated
operates
viking
fairbanks
cavern
caiman
learns
maxim
topside
superc
superv
superb
supervis
counse
councill
mouthed
##ocate
kisser
doubles
doubled
covert
danvers
personalities
##undant
##zzik
generals
juda
palantine
protects
sticky
casa
casy
##essional
miscar
misinter
courteous
telepr
honora
fezzik
##versial
conniving
swears
chickened
lariviere
##mingham
shorthand
irving
irreg
irwin
hopin
solving
suites
lunches
##iko
enjoyment
rocker
rockin
rockets
damien
cables
motors
motels
tickle
destroys
birthright
turd
turks
armstrong
letterman
acrob
formidable
englishman
communism
dai
daik
borne
##boats
icebergs
##enched
##iliation
doubtful
boxing
viola
sadistic
screwball
digs
greenwich
greenhill
boardwalk
dunn
dunois
geeks
vera
rollin
belongings
tempting
posts
modem
modified
acceptance
hyst
hype
hyde
continually
macy
macaron
tasting
suckin
congreg
casts
wildman
particulars
philanthrop
cowan
cowards
gardens
calmly
##bius
priceless
quarre
appearing
electra
bowel
masbath
physicians
laboure
miriam
sensory
boyfriends
pushes
recognizes
divorces
seaweed
seagra
auditor
auditions
audiences
##bbs
comforting
comforted
henri
codex
pinpoint
credits
credential
tighter
moonan
tapest
expire
lament
lamont
rental
rubbing
rubbish
loosely
sleazy
screamin
traveler
malicious
malignant
taxpay
faithfully
northwest
melton
melanch
conditioner
grier
griev
browns
browning
janey
janiro
swimmin
organizations
mmmmmmm
dancers
objects
objective
authorize
##ofessional
blinded
civilizations
berry
duquette
randolph
arche
assisting
generations
licence
licenses
mixture
titles
professors
customary
risked
puking
scarce
bradley
braddock
speedometer
rapes
rapids
stanford
poolroom
clientele
santiago
originals
##iatric
branding
satisfactory
banzai
ratso
ramada
urg
urban
commonweal
rosie
venza
combinations
volga
hawks
fema
##headed
providing
drags
bono
bonjour
sundays
raban
wilbur
regularly
gamma
developments
planting
plantation
britons
whispers
quarterback
##affe
diseased
creams
buffoon
bummed
socialist
engineers
engineered
celebrated
msayin
mutt
mutants
scripture
separation
quotes
carton
cartoons
janeiro
maple
buttercup
chaplin
carpath
hillside
jabba
rodgers
albatr
blondes
periods
magnet
magnitude
florence
pinky
processing
processor
rhian
rhodes
variet
variation
unfaith
confirming
trunks
dispute
disposition
hypers
pillows
pilletti
whadaya
loaned
briefs
briefed
latent
stability
seducing
choco
wolfgang
coastal
coastguard
shhhhhh
unsc
unsatisf
acquire
implore
nineties
productive
underworld
scratches
lorraine
barnard
squadron
boundary
hoops
wyant
psychoanaly
tempered
congressional
negotiator
haywire
pornos
theaters
froze
demanded
##oscope
sweaty
asta
bouncy
fags
ooops
poured
shawn
shaved
escapes
dilig
mumble
shelters
benefic
popularity
preaching
explanations
automated
osborne
versa
financially
constructed
terminator
confessions
conducting
pursuing
katka
voorhe
brooks
coincid
responded
dissent
dissertation
contains
container
containing
blasting
##ohl
francesca
conceited
troubling
##cracker
habitat
courageous
settings
virtual
deduction
peddling
tentacles
initiation
achilles
wanda
##knife
pleasantville
nedry
rifles
utmost
exercising
reconcil
savvy
convene
bridegroom
attendants
farts
kilo
complimentary
cereal
hanover
individuals
sewers
envoy
railroads
aiming
laundrom
nesting
puffs
ranks
patriotic
bowlers
ruthless
monitored
announcing
profitable
symbols
bulk
deejay
ilia
##holders
##draft
rebutt
glorified
editorial
documentation
limitations
analyze
cube
vicky
unprep
bootle
cowardice
sparazza
concepts
enormously
paleont
obligations
1969
pollution
telegraph
16th
humpbacks
jahn
jaime
octavius
sovereign
bluffing
essay
essentially
rawl
lambeau
nyu
omigod
weirder
legendary
fogg
wiping
yuk
injections
disciple
disciples
strawberries
leonardo
receptionist
werewolves
sparkling
decorator
memorable
dynamics
naval
unaccept
interrupted
applying
achieved
siwash
sioux
tolerance
rejection
myths
sumbitch
sprayed
greyhound
symptom
diploma
##iasm
klingons
nitro
nitrate
nitrogen
tsk
sequel
selected
selectman
wrestler
exploiting
drafted
observations
jellybean
stalking
sofie
granny
traumatic
survivor
gypsy
jayne
molested
nichol
##nowitz
guiding
carolina
mocky
inconceivable
bambi
dublin
lancelot
orphans
plumbers
exterior
queers
annoyed
##immel
crowns
eduardo
unexpectedly
durin
ingenue
reassure
shapiro
frustrating
smugglers
brewer
accomplishments
multipl
perpetrator
cassius
inhuman
nostrils
##izzard
feathers
baptism
caterer
catering
czechoslov
jawohl
##polis
windsor
penetrated
bunks
zeke
insights
diagnosed
harassing
metaphas
indulgent
brazilian
erection
crunching
elementary
memoirs
treasurer
volunteers
insects
manifesto
constitutional
bouquet
tangled
vaguely
##ravitch
bruise
roasted
emilio
crucify
superheroes
anticipated
titanium
##aaaaaaaaaaaaaaaa
kobo
ludwig
ludicrous
satchel
tucked
enlightened
unwilling
presumed
presumptuous
evacuated
patronizing
impersonating
verdell
mathematical
patriotism
nudity
stimulate
overdue
insomn
jeopardy
jeopardize
indoors
mildred
pulitzer
dooley
stylish
wholesaler
motivated
lizardo
compassionate
asteroids
coyotes
ostrich
pensacola
theoretical
##keeping
##keepsie
allegations
allegiance
trumpet
unprofessional
embezzle
morrissey
interpretation
calculations
extraction
contradict
estimating
cavalier
kryptonite
maneuvering
overwhelmed
hazardous
cunningham
ducts
pancakes
ruler
renaissance
vocal
vocab
##broken
arsonist
kidneys
laxative
compartments
ambushed
challenges
birdy
birmingham
fertilizer
revelation
pharmac
prejudice
prejudiced
squirrel
dishonor
hypnotized
insecurity
fiancée
squeamish
forensic
forensics
plaque
plausible
offspring
mayflowers
newcomer
eloquent
crockett
parameters
appeals
muskie
absorb
mcintire
synthetic
klein
valdes
vanderbilt
meadow
bloated
handicap
handicapped
dissect
trilithium
babysitter
snotty
bleeker
sarcasm
grifter
grifters
videotap
videotape
fundamentally
tranquilizer
bixby
rimgale
riviera
stuttering
lovett
##iguration
moebius
disarmament
intervals
christsake
evidently
bullshitting
indigenous
belgian
squeezed
marshmallow
ultimately
hemorrhaging
crocodile
accommodate
dandy
dulaney
pixilated
wrigley
##zsche
chandler
blazing
adonis
recluse
hungarians
refugees
roadblock
bleachers
mcgruder
massacre
embezzling
overreacting
bawling
ceti
patel
pankot
sizemore
xenia
yvonne
zimmermann
rewrite
sugai
atheist
bypass
scourge
cradle
serpent
stratford
obedience
sublime
prophet
extradition
condescending
lyndon
projectionist
applicant
kremlin
astonishing
henslowe
icky
lathrop
nourishment
nietzsche
zurich
nocturnal
canvas
plunge
carcin
trophy
insubordination
sonuvabitch
burrito
deformed
transfusion
superficial
melodramatic
cylinder
hillbilly
fingertips
improving
sophomore
picasso
deductible
grasshoppers
cocksuckers
inexperienced
epidemic
eavesdropping
biederman
cpu
cucamong
kosher
mhravitch
mbwun
mabel
norrington
nugent
pakistan
roulette
sartorius
zuul
zinnowitz
beynon
shepherd
chelsea
trubshaw
trucoat
clobber
nightingale
croupier
performances
handshake
lacrosse
schaefer
prostitutes
insinuating
controversial
paisley
relativity
discredit
refreshing
transponder
impotent
reprieve
catalyst
ethiopia
pizzeria
etiquette
sacramento
grammoo
mercenary
advertisement
acknowledged
cauldron
blasphemy
aryan
bensinger
cottage
oracle
pessim
poughkeepsie
porthos
rallies
sgt
zaltar
##itudes
doorknob
doomsday
shakedown
deirdre
sabbath
arletta
arithmetic
broussard
overworked
marilyn
marguerite
gretchen
removal
minneapolis
handkerchief
pharaoh
interruption
paraiso
sonrisa
barbatus
giovann
skrapinov
espresso
curriculum
transparent
entrapment
tybalt
councillor
misinterpret
irregular
macaroni
seagrave
auditorium
credentials
commonwealth
albatross
unfaithful
voorhees
rebuttal
unprepared
cucamonga
0h
03
37
39
3rd
53
58
61
8a
89
94
96
agh
aide
aph
acker
ache
aquar
bing
bil
bong
bact
bac
bids
cul
cody
coney
cakes
cope
cnn
dl
dale
dya
eiffel
fad
fain
fatt
fills
faked
fenny
fades
faded
fisk
fancies
gould
gert
gaps
gills
gingham
hasty
hedge
ight
iram
igu
iggy
ipo
jd
jad
jank
jaws
jolt
kut
kell
kol
kang
kins
kike
kru
komm
krie
korda
lum
lint
lakes
lars
laps
lenn
lending
lapsed
lutz
mes
mound
mord
muth
moul
mode
mik
mung
mitz
mashed
mouthing
nou
ner
nir
nab
nlf
nath
nero
nano
naming
oat
ove
ogg
ollie
pes
pse
pum
pett
piers
rin
rugs
sra
sard
sade
sno
sne
satt
sss
tir
tant
tate
tary
tamp
tainted
tumbling
uz
uri
vr
ved
vich
viny
vcr
vidal
vandal
watt
wards
wunder
witted
xero
xavier
yor
yow
yar
yore
yum
yugos
yadda
zy
zat
zere
zee
zipp
zones
zapped
zeus
zorg
zeph
##rh
##ruck
##riss
##rock
##rope
##rude
##riment
##riman
##game
##gren
##gically
##guff
##nant
##num
##nals
##number
##zh
##zac
##znick
##kk
##kick
##kok
##hose
##hma
##hbert
##harm
##lest
##long
##liness
##lair
##lits
##laughter
##lasses
##fy
##fax
##faced
##year
##mill
##mand
##mick
##miss
##matic
##moral
##migod
##morda
##uus
##uper
##uza
##uously
##dam
##done
##dies
##dens
##dler
##oise
##ozo
##cans
##cett
##cape
##cats
##comb
##cano
##corp
##pta
##pings
##wan
##with
##wife
##weds
##witty
##wait
##van
##vine
##bot
##bas
##bod
##bour
##bred
##beth
##bread
##bago
##build
##just
##jorn
##jane
##jama
##58
##70
##ón
tha
thad
thug
##inet
##inch
##iners
##inci
##atus
##atile
##onin
##onov
##anide
tole
tock
toaster
##ingson
##lll
##llip
whar
whims
##oration
##ority
##enk
##enh
anto
##arz
##arcer
##areness
##isine
##etes
##otle
##itant
##itri
inmates
inigo
##rect
##repr
##regn
##vell
##veau
##uter
hectic
reop
reiss
reyn
rewards
rechar
bew
beak
wept
webs
mek
meld
hagen
halt
dogged
doggy
dovey
doggie
##lege
##idy
##stant
##start
##strel
ongoing
isley
goon
gogh
goosed
gopher
goetz
golits
shal
shea
shuck
shamp
shrew
shiver
shreck
shrap
shaky
##aloo
forfe
##imitar
donowitz
stings
stale
stature
staged
staked
stung
stipe
stunning
stokes
liv
libert
libel
knowed
##chal
##chment
##chio
nother
notify
##aders
##adio
myri
mydick
nod
nobel
nova
##iration
##irting
##antis
##antics
##antha
##ente
##entious
##eemed
withhold
canal
canister
##illin
##illas
##ooly
##ooey
buts
butth
neal
neander
theyre
soaking
sopr
##ione
abby
abys
abrams
abetting
getcha
outlet
outbreak
outnumber
outdone
##inkled
##riers
##riage
##rigal
##nde
##eacher
sheer
chit
chut
chig
chilly
chester
chigur
howls
suing
sully
sult
prow
printing
pranks
prisons
##oping
##opes
##ophers
##ryption
anyroad
##icer
##icament
##ellar
##andez
##iem
vector
dex
dept
deci
deport
dehyd
frisco
fringe
frisk
herod
herring
alo
alp
alum
alignment
##ilight
everest
##usov
saver
saud
##ivey
manch
manning
manny
manually
orn
orth
orte
##geese
tellers
loew
loco
lollip
##arded
plight
##igation
##igure
##istible
##istrib
timothy
goody
goodwill
##ulary
##ulative
seated
segment
ohmigod
##osy
##osin
##osals
gummy
##olving
##olite
##olences
arty
arise
argo
comfy
fromber
##endo
##abag
wills
##ounded
backl
backdraft
##obi
##obes
##obic
##naw
spo
spree
sphin
speng
sparing
spleen
spivey
conting
conned
conception
lettin
##ourin
##ourse
##umby
talkative
bran
bret
brood
brushing
brimmer
bronson
brumby
hades
everythin
twenny
twilight
offed
offland
cary
carpe
amos
trend
trud
trillion
##otherapy
agn
clout
clich
clipp
clerg
clicks
clavius
lem
enters
happend
##ortions
##beard
##belie
##beats
overh
overjoy
pew
pecker
pember
downs
quas
quiz
unra
unqu
unions
uneth
unann
unru
unka
unmark
mooney
moaning
bytes
blum
blouse
blush
##acell
mull
muld
muley
##berish
##berger
mara
marr
maru
marches
marjor
intake
intro
##elt
##elaces
buding
buggin
coffe
##agus
sciss
scud
scoring
scimitar
##issen
huff
undis
unders
undies
hellhole
hellfire
underhill
wright
wrath
sorcer
sorority
grues
gritty
groves
roc
roam
roster
roeder
jokers
helpin
##ipated
imf
imitation
imbal
findley
lifeboat
##achi
muster
putty
reman
remed
##pled
##plug
embedded
leaky
thru
thrott
thresh
kinder
kinderg
elk
elroy
eligible
##udo
cret
crust
crud
croon
crotch
aden
advers
adcox
##oodles
swenson
partying
smudge
##gett
macc
maura
hocker
miners
minstrel
realtor
homey
hiv
hippy
pertain
perks
pervers
perceptive
understan
##vedere
mona
monet
monuments
aces
acre
acula
acrost
flake
floss
flores
flares
flirting
missions
assail
assert
faust
##cio
playground
playback
##ogne
##ogens
##ogram
##ogues
startle
phr
pham
phoe
buses
disas
disast
##ondo
##ondition
ida
idol
idaho
##quist
##quiat
deadbeats
##taine
tract
trappers
crain
crabb
##manship
tomah
housekeeping
morg
moran
morse
headmaster
headlights
##shr
##sheet
launce
interst
interstate
reson
resists
##anson
schof
schooly
wasnt
proc
parl
parap
paratr
insure
insurre
pretzel
pretentious
boca
booted
boiled
##acomb
slink
slum
slang
slope
slither
slaps
slices
slander
slapping
yaw
charade
charmed
charities
charnier
recap
recomb
recipe
appropri
contents
dialed
diabet
wary
warhead
commies
commode
commute
commotion
whichever
##rovert
turnover
breck
breached
glowing
personals
poles
polack
attire
watchit
fined
financed
fambly
accum
##ggle
harley
harriman
bested
triang
compact
composite
compieg
invinci
designing
##xton
caper
capra
capabilities
capulet
jacks
sitcom
surreal
farrell
schooling
paved
seniors
barb
barman
endured
cuthbert
##ultz
##anco
shoved
shoelaces
giang
jesuit
babylon
prescribe
edges
edvard
childbirth
damnation
##lings
thirties
dolly
christoph
christopher
halford
decade
decode
deciding
apric
gunning
gunnel
figment
figaro
dared
secondly
lawman
evade
relocated
skid
skag
seti
complication
complicate
bedev
bedsoe
grabbing
genetically
obregon
aww
awards
awareness
##otti
##ugnant
##azin
##azine
##azzo
jeze
confine
conform
confuses
configuration
passin
passages
passkey
earning
earnings
heartbroken
shutup
murman
airs
airk
airstri
colt
cologne
doorbell
lightly
lightweight
lightyear
dreamin
explored
indicated
indeter
induced
indiffer
sykes
consulate
consulting
braver
bragg
brained
delin
delaw
madrid
madrigal
coral
pullin
stein
steals
faction
sender
sendin
speaker
##nebago
blacked
blackheart
detest
incarcer
engraved
firewood
firepower
firearms
sidekick
truthful
truthfully
discrimin
##apple
buyers
sexist
retro
retiring
admits
messina
salts
forgave
strap
papal
snatched
collision
collabor
lateral
burma
burbank
calam
calriss
whitey
whitefoot
defl
defined
defender
defenses
deflector
jimbo
windex
artem
espar
sweets
droppings
curb
curry
winnebago
singin
fallout
legion
concur
redundant
redistrib
samantha
beatnik
subter
submar
bobbie
uncanny
uncondition
satire
raf
raisin
proportion
##umbles
musl
belch
belvedere
grego
greased
studios
classmates
extend
extras
extinction
distaste
distrust
refined
ballgame
medall
medals
impolite
bankers
colder
##rical
kev
mistook
owning
owens
specialists
rundown
psychos
psychologically
maryland
entrusted
entrepr
catchin
felton
jerky
informants
squal
hospitable
poppa
popeye
typh
merde
imagery
imaginary
freeman
vien
condolences
humanitarian
wallop
beseech
tote
caul
lockdown
exceptions
repugnant
michel
mouthful
##ocam
##ocation
##ocrat
disapprove
quickie
puritan
##ounge
costing
posing
judicial
palate
palaces
protector
cashing
casbah
pressuring
virge
considerably
considerations
bask
basquiat
misle
misgu
misfits
investing
feur
feud
demer
cryo
sidetrack
sidelines
commanding
commanded
growed
##maids
upsets
kickin
strick
soldado
irth
packet
hops
hopping
drunks
suitor
##nese
unclear
garc
garter
garters
enjoys
enjoyable
rocking
quitter
cabot
cabana
cabbage
eyebr
busts
motions
ticks
footprint
destroyer
sherm
trucker
trucking
breathin
turley
turtles
denies
denny
bathed
wedd
closure
devour
devote
devotion
ellingson
fedex
torches
formica
arresting
detectors
cataton
catacomb
190
19th
daitz
cardinal
cardenas
woodwork
icey
icebox
appreciates
fearing
boxers
violently
screwdriver
digger
nina
ninja
boarded
visitation
romans
dungeon
dunwitty
verified
vermin
veridian
peacefully
opposing
opponent
rollers
rolltop
germ
camille
##iterate
impressions
module
moderate
accepts
hym
hygi
connecting
splits
splashing
continuum
macguff
requis
southgl
establ
amaze
furry
settin
equity
equations
equival
particle
philharm
preparations
addresses
cello
threatens
correl
fielding
pardner
appearances
colorado
heavenly
gaspar
bowman
physic
labour
tracker
trackers
sensing
sensation
definitive
summon
summit
potent
potentially
potaters
holed
holier
holster
recognizing
rounding
washroom
extracur
datura
clarissa
clarinet
terrence
earliest
raines
raincoat
admiring
admiration
trickery
depended
sharon
civic
pinea
##ographs
tighten
tarz
tarant
tapert
##cyte
francie
politically
auton
cupboard
lamagra
rubs
ports
portray
ideals
leech
viewer
viewing
viewers
##laim
skinner
skinned
piled
yahoo
collectors
##rops
##rophe
brownie
climbs
jani
janus
swimmer
supported
routes
heavyweight
embarassing
dorsey
receiver
recepta
repro
baloney
balint
balmoral
authorization
blinding
berger
duly
bellmoth
agreeable
archives
matching
committees
titus
speechless
lindgren
successor
puget
treehorn
scarin
scarred
martyr
lucrative
softly
crawls
warmth
precog
roberto
rapture
scrunch
pathologist
cornered
motherfuckin
virginal
airports
ratio
ramsey
ramón
sundown
swept
familiarity
gangsters
angrier
cypher
cyanide
rosy
booger
venom
venison
laurent
complained
volcano
forecl
mcclus
mcconn
statistics
provoking
rumours
rabin
wilma
wilfred
hamburgers
bugler
designated
hunts
touring
tournam
jacu
weights
wisely
accordance
sneaky
fanatic
fanelli
revlon
revolt
shrunk
stormy
snowing
snowman
exec
puny
patterson
grader
186
corral
corrado
kirby
reacting
bumper
bummer
nicola
skylight
muther
villages
villagers
expressly
executives
unholy
depressive
telephones
##genstein
quota
hilda
cubs
wetter
representatives
nutcase
nutshell
tipto
##boni
thyself
chapman
chapters
punchy
defenseless
targeting
napal
persian
enterprises
fiasco
vulcans
faber
fabri
mortg
peeing
peeking
##monary
guarantees
155
shapeley
dispose
pianist
pianos
behavioral
mathew
improper
1200
chatting
spreads
pierced
sedation
tongues
##nnnn
dumpt
##aaaaa
renoir
siege
siegf
taber
##forward
unsp
##cloth
occurrence
antique
beauregard
lizards
implants
implicate
implanted
nineteenth
epic
giggle
gigolo
montague
photographic
bangkok
cynicism
lorenson
embry
assumption
hooper
rewarded
deceiving
bravely
temperatures
negotiable
hayse
widows
##risy
stretching
rescind
hobbies
padding
astr
astute
asthma
bartending
frau
gears
mattie
liberace
inventor
borderline
dilithium
whacko
drowns
cadets
toilets
educational
nationals
osc
##deus
determination
pitches
ribbons
affects
adjacent
confessing
purser
buns
bungh
horrid
candied
predicament
barrytown
deact
dissatisf
lunar
lacks
flattery
wednesdays
nathanael
vitelli
##ebag
conceivable
crushes
##crack
virtues
philosophers
tubbs
outfits
clinics
individually
tasker
wanders
wormhole
marched
vessels
beefy
hackers
neatly
atlantis
exercises
cruelty
oakwood
rotation
attendant
carpentry
cobra
hesitated
kinship
mantua
racquet
flags
flagged
occupational
challenger
215
dyed
dyson
mechanics
stiffs
cliffs
scanlon
grossman
adjustments
hoods
ultra
alteration
alienate
sewed
intentional
proceedings
captive
salvador
hauled
structural
tribute
tribuus
lifetimes
alternatives
patriots
biology
frivol
announced
formerly
specifications
symbolic
bulb
bulgar
deem
jenzen
##veston
rebuild
waitresses
analytical
cuisine
tattler
tattagl
vintage
sprung
unpack
schemes
democrat
surroundings
tigers
slaughterhouse
harboring
trippin
obligated
1960
hitching
orchard
polls
columns
concerto
bogan
bogart
bogyman
##crity
##cratic
sabu
schwarz
subscribe
landscape
valentino
technicality
omaha
functional
waltz
exceptionally
gillette
coronation
frequently
fondness
hutu
sinclair
ingles
assembled
scouting
persuaded
mandatory
nomination
unacc
stallion
neuro
neurosis
intimately
intimacy
cranky
interrogated
restrain
maintained
egos
tolerant
anchors
israelis
stunts
writin
writings
explorers
exploration
kristina
revealing
wickedness
klingman
nitwit
measured
##eeeeee
praised
exaggerated
wrestle
wrestled
grocer
##whati
exploited
sync
observant
observatory
dictator
mongol
reinstated
outlaws
granma
granville
crusades
1971
1972
idealism
idealistic
whitew
socked
brushes
caroline
possessions
blackmailer
fidelity
mushy
odette
odessa
##bags
selznick
riddled
concluded
turkle
broadcasting
rehearsing
ichiro
riots
tramps
contribute
commodore
skillful
fantasize
jacobi
sabotaged
matthews
pencils
sicilian
reassigned
reassignment
havoc
capitan
translation
translated
repaired
historian
aracht
cassandra
fuchs
pods
inhale
nostal
gullible
gulliver
bronze
1984
1980
cautiously
lamps
outsider
scholars
drifted
hallucination
scumbags
bunker
biocyte
abduction
intensely
cocoon
diagnost
indulgence
1952
disgraceful
fiends
gazelle
lysine
ponds
rooster
vagina
maneuvers
ensign
underestimated
slacking
simplicity
robberies
reformed
convicts
boosted
navigate
navigator
tango
tangiers
##ihan
manipulate
manipulated
spanking
flaunt
confronted
depths
1945
1995
sufficiently
scenarios
tibetan
3000
cinch
dreary
jasmine
spooning
brassiere
twenties
flavors
thermal
hypothetically
dimensional
lanterns
manufactured
manufacturer
baines
bienstock
henderson
nudie
ratted
rattling
exorcist
waldman
eliminated
smeared
##ogenic
craziness
craziest
highlands
highlander
irresistible
irritate
feminist
immigrant
counterfeiting
antonio
shagging
uneasy
scalped
funnier
comprehension
demolished
obscure
oriental
orientation
unlocked
fragments
vincenzo
overlooked
enthusiasm
coyote
hinkle
zombies
screens
welshman
hypocrisy
accelerate
clemency
lumps
ulcer
ulcers
sumpter
hoffman
intercepted
glamorous
endangered
distribut
squatting
vengeful
hollerin
flaemmchen
categories
akron
dreyer
fibers
fertile
hormone
hormones
##ranean
meyerling
stitches
unloaded
undertaken
emerge
resurrect
metropolitan
colombo
behaved
inflation
squirrels
tormenting
dishonest
botany
munchkin
nipple
##101
heineken
stooge
##alleled
manslaughter
newcomers
flunked
deserter
disclose
artificially
cici
keri
oyster
pimps
pansies
vanderhof
meadows
shabbas
guerr
arrakis
spicoli
oversight
blooming
newlyweds
dissection
untouchables
awwww
infiltrating
electrified
sarcastic
variations
cheerleader
prosperous
##ebrae
tranquil
dwarfs
bixler
celest
gatling
keefe
oberfeld
pestil
stutter
trespass
trespassing
intervention
inserted
christsakes
consistent
incorpor
incorrect
distinguished
mediocre
mediocrity
rupture
ruptured
freighter
cremated
grieve
grieving
ultimat
crocodiles
fernando
kwan
nauseous
oasisburg
pioneer
rapport
voters
aristotle
aristocrat
bubbles
persecut
desecration
espion
subdued
musketeers
annihilation
erratic
ernest
mobilize
gelatin
rolfe
xk101
##lichman
##lavia
reeks
ligourin
sunglasses
defective
exhilar
spunky
twinkies
peerless
flintstone
proximity
sluggish
passwords
sniper
imaginative
positronic
alexandria
berthier
puzzles
acquisition
pantyhose
mulvaney
oooooh
aggravation
luciano
merchandising
borders
gulch
nylons
paternity
hepburn
stardust
staggering
chubby
demented
arbitr
quellek
mundt
intolerable
lifeforms
elitist
swarthout
lacerations
proceeding
insolent
metallic
filmmaker
uncontroll
affliction
norwegian
oppression
puncture
ottos
tabloids
gynecologist
lazarus
rooftop
accompanying
raspail
schizophrenic
wannabes
bavmorda
cullum
gavin
hologram
kooky
kenneth
lsd
ogre
pestering
riker
taiwan
vultures
voila
yengeese
thalaron
gospel
prolong
frenzy
guineas
brodsky
envelopes
unparalleled
moorings
maitre
perjury
fawcett
disadvantage
diabetic
billiards
watermelon
repellent
disapproval
communicator
fatigued
prodigy
antigua
rebellion
athlete
skeletons
economics
burgundy
microchips
phenomenon
inaugural
bazaar
hothead
kgb
poultry
ruckus
tutsi
vortex
##busters
##animous
inadequate
dossier
libyan
solemn
fratern
manfredi
clerks
cloverleaf
grouchy
longshanks
impediment
throbbing
travesty
paramedics
paralyzed
giulia
confiscated
sylvie
starbucks
detachment
subversive
proprietor
miscarriage
tapestries
urgently
coincidences
laundromat
rawlston
unacceptable
czechoslovakia
metaphasic
embezzlement
vocabulary
videotapes
clobbered
giovanni
ackerman
aquarium
fennyman
gertrude
jankis
kutusov
kruger
kommand
krieger
lennon
mutha
mitzv
sattler
vinyl
vandalism
xerox
yugoslavia
zephram
thaddeus
reynard
golitsyn
shalom
shampoo
shrapnel
myriad
neanderth
abyss
chigurh
saudi
ortega
fromberge
sphinx
spengler
trudell
overjoyed
pemberton
unethical
unannounced
unruly
unmarked
budington
scissors
gruesome
throttle
threshold
kindergarten
phoebe
tomahawk
launcelot
schofield
schoolyard
insurrection
diabetes
compiegne
invincible
jezebel
indeterminate
delaware
incarceration
calrissian
esparza
submarine
gregoire
distasteful
entreprene
misguided
sidetracked
catacombs
hygiene
southglen
establishing
equivalent
philharmonic
gasparilla
extracurricular
mcconnell
siegfried
tattaglia
